<pad>	0
<unk>	0
<s>	0
</s>	0
۔	0
،	0
؟	0
!	0
▁ک	-0
▁ا	-1
▁ہ	-2
▁م	-3
یں	-4
▁ب	-5
▁س	-6
▁ت	-7
▁پ	-8
▁ن	-9
▁کی	-10
▁ہے	-11
ان	-12
▁ج	-13
ور	-14
▁د	-15
ار	-16
▁ہو	-17
▁میں	-18
▁کے	-19
یا	-20
▁کا	-21
▁ر	-22
▁و	-23
▁گ	-24
▁ل	-25
▁کر	-26
▁اس	-27
▁سے	-28
▁کو	-29
ات	-30
وں	-31
یک	-32
ال	-33
ائ	-34
▁ی	-35
▁ان	-36
▁ہیں	-37
ھی	-38
▁نہ	-39
ری	-40
ام	-41
▁چ	-42
▁یہ	-43
▁خ	-44
▁اور	-45
ست	-46
▁ش	-47
تا	-48
▁ف	-49
نا	-50
▁ع	-51
نے	-52
▁ح	-53
▁پر	-54
▁کہ	-55
▁نہیں	-56
▁تو	-57
اک	-58
ین	-59
▁تھ	-60
▁ق	-61
ئی	-62
▁بھی	-63
لا	-64
▁نے	-65
اہ	-66
▁رہ	-67
لی	-68
▁اپ	-69
تی	-70
▁ٹ	-71
تے	-72
یر	-73
یس	-74
ئے	-75
▁وہ	-76
▁ایک	-77
▁ہم	-78
▁کیا	-79
اب	-80
اد	-81
نی	-82
ند	-83
ستان	-84
▁ص	-85
▁ہوں	-86
یم	-87
▁پاک	-88
▁ط	-89
▁ز	-90
▁لی	-91
لہ	-92
▁جو	-93
▁پاکستان	-94
سی	-95
ید	-96
▁تھا	-97
از	-98
اں	-99
چھ	-100
▁دو	-101
اری	-102
▁پہ	-103
می	-104
▁اب	-105
نگ	-106
▁ڈ	-107
▁ہی	-108
ول	-109
▁بہ	-110
کھ	-111
▁گا	-112
▁ال	-113
ائی	-114
ائے	-115
ھر	-116
ون	-117
ود	-118
▁مع	-119
▁دی	-120
▁مل	-121
وم	-122
لم	-123
▁رو	-124
▁بہت	-125
لے	-126
یت	-127
جھ	-128
▁سو	-129
گر	-130
انی	-131
قت	-132
▁مس	-133
▁بات	-134
یش	-135
▁سک	-136
رو	-137
▁لو	-138
▁تھے	-139
▁کچھ	-140
▁ایس	-141
را	-142
▁جات	-143
▁خو	-144
▁ام	-145
رد	-146
▁مو	-147
▁اج	-148
رف	-149
▁کوئی	-150
انے	-151
▁لیے	-152
▁بی	-153
ارے	-154
اتھ	-155
▁سب	-156
▁بن	-157
▁جب	-158
ٹی	-159
▁لگ	-160
▁چاہ	-161
رے	-162
▁جا	-163
▁کم	-164
▁گیا	-165
▁بھ	-166
▁کھ	-167
▁کام	-168
یل	-169
ڑی	-170
▁پی	-171
▁مح	-172
▁من	-173
▁وال	-174
یاد	-175
اف	-176
▁لوگ	-177
▁اد	-178
گی	-179
▁ہوتا	-180
▁رہا	-181
▁می	-182
ما	-183
رح	-184
▁سیا	-185
بی	-186
ٹر	-187
▁شک	-188
▁دوس	-189
▁حک	-190
یکن	-191
▁دیک	-192
▁بر	-193
▁تھی	-194
▁فی	-195
▁اپنے	-196
▁رہے	-197
▁جس	-198
لام	-199
▁رکھ	-200
▁کسی	-201
▁دن	-202
▁کرتا	-203
قی	-204
▁لیکن	-205
▁کرنا	-206
اح	-207
یز	-208
عد	-209
▁ساتھ	-210
▁وقت	-211
▁ہوا	-212
▁مق	-213
ورت	-214
▁کرنے	-215
▁ملک	-216
▁اف	-217
▁عم	-218
▁دیکھ	-219
▁سی	-220
▁پھر	-221
▁اپنی	-222
▁ض	-223
▁چھ	-224
▁جائے	-225
یے	-226
▁تم	-227
▁دل	-228
ران	-229
▁گی	-230
▁نظ	-231
اس	-232
▁تع	-233
▁جن	-234
▁بڑ	-235
خت	-236
▁در	-237
▁گے	-238
ٹھ	-239
▁کار	-240
▁جان	-241
▁مجھ	-242
▁نو	-243
رم	-244
▁مش	-245
▁ہر	-246
▁دیا	-247
▁ٹیم	-248
▁تک	-249
▁اع	-250
▁یا	-251
دی	-252
وری	-253
▁مت	-254
▁سر	-255
▁میر	-256
▁اللہ	-257
جہ	-258
▁طرح	-259
▁سم	-260
▁کب	-261
▁مجھے	-262
کہ	-263
رین	-264
▁تر	-265
▁حکوم	-266
▁چاہیے	-267
▁حال	-268
▁کرتے	-269
▁ہونے	-270
یاں	-271
▁جاتا	-272
ہر	-273
▁ہونا	-274
مال	-275
▁گئی	-276
▁پڑ	-277
▁اگر	-278
▁دور	-279
شن	-280
کر	-281
▁ضر	-282
▁گئے	-283
▁رہی	-284
▁یہی	-285
▁حکومت	-286
▁فیص	-287
▁دنیا	-288
انا	-289
ہیں	-290
▁کپ	-291
▁اسلام	-292
▁وا	-293
▁با	-294
▁انت	-295
▁یہاں	-296
▁خان	-297
▁ایسا	-298
مہ	-299
کی	-300
▁ای	-301
بر	-302
کل	-303
اص	-304
لاف	-305
▁ار	-306
▁اسے	-307
▁اخ	-308
▁بعد	-309
جود	-310
▁مط	-311
جی	-312
وب	-313
وٹ	-314
▁اح	-315
دار	-316
ریف	-317
▁ور	-318
▁اسی	-319
▁کرک	-320
یہ	-321
ارہ	-322
نچ	-323
▁انس	-324
▁ہوتی	-325
فا	-326
لق	-327
▁اک	-328
▁بے	-329
▁نام	-330
در	-331
لاق	-332
▁سمجھ	-333
▁ہمارے	-334
▁جہ	-335
▁او	-336
▁قو	-337
ارت	-338
ینڈ	-339
▁مر	-340
▁زیاد	-341
سم	-342
انہ	-343
▁بج	-344
▁بل	-345
▁تب	-346
▁تح	-347
قع	-348
ادی	-349
ریک	-350
▁زیادہ	-351
▁ات	-352
▁چل	-353
▁کس	-354
▁ہوئے	-355
▁اص	-356
وس	-357
▁نا	-358
ائیں	-359
▁جیس	-360
▁بد	-361
▁سال	-362
نٹ	-363
▁سوچ	-364
▁گز	-365
نس	-366
ارا	-367
▁زم	-368
▁سام	-369
▁است	-370
▁طرف	-371
کا	-372
▁از	-373
▁کبھی	-374
دہ	-375
ھے	-376
▁سیاسی	-377
▁لوگوں	-378
اش	-379
الی	-380
▁لیا	-381
▁خوش	-382
▁پہنچ	-383
▁ہوئی	-384
فر	-385
نڈ	-386
▁بار	-387
▁کہا	-388
▁فلم	-389
▁سیاست	-390
▁پاکستانی	-391
گہ	-392
▁ٹھ	-393
▁پس	-394
▁لئے	-395
▁ہوگ	-396
▁پہلے	-397
▁کیوں	-398
کے	-399
لئے	-400
▁مسلم	-401
▁ہوتے	-402
رب	-403
▁فیصلہ	-404
روع	-405
ٹری	-406
▁وز	-407
وی	-408
▁معام	-409
▁کریں	-410
▁بچ	-411
▁اپنا	-412
▁ائی	-413
▁شروع	-414
▁کرکٹ	-415
▁اہ	-416
▁حس	-417
▁والے	-418
یسٹ	-419
▁مز	-420
▁جی	-421
▁مد	-422
تم	-423
احب	-424
▁پید	-425
▁کیس	-426
▁شکست	-427
▁صاحب	-428
▁ہماری	-429
▁نظر	-430
▁کرو	-431
▁انسان	-432
ندگی	-433
اہر	-434
ولی	-435
▁فر	-436
▁کیلئے	-437
▁اگ	-438
یو	-439
ریز	-440
▁صرف	-441
▁ایسے	-442
▁اٹھ	-443
▁بنا	-444
▁صورت	-445
بت	-446
▁اچھ	-447
ائن	-448
رار	-449
▁انگ	-450
▁جنگ	-451
لڈ	-452
▁پیدا	-453
▁ائے	-454
▁انڈ	-455
مت	-456
▁سن	-457
▁بڑھ	-458
▁ہمیں	-459
لیم	-460
▁دوسرے	-461
▁موجود	-462
▁خود	-463
▁میرے	-464
یال	-465
▁مسئ	-466
▁مص	-467
▁جہاں	-468
اج	-469
مل	-470
▁علم	-471
عت	-472
روں	-473
▁دے	-474
▁مہ	-475
▁ایش	-476
▁جگہ	-477
▁مار	-478
▁مگر	-479
▁پسند	-480
فی	-481
▁تی	-482
▁لے	-483
▁کل	-484
▁شریف	-485
▁نواز	-486
▁قان	-487
▁خلاف	-488
▁عد	-489
▁گر	-490
با	-491
▁سکتا	-492
▁مخت	-493
ئیں	-494
▁بھر	-495
▁طور	-496
▁ضرورت	-497
ائل	-498
▁گھ	-499
▁وجہ	-500
ئن	-501
وع	-502
وام	-503
ینی	-504
یات	-505
▁ریا	-506
▁چیز	-507
▁استع	-508
▁قومی	-509
▁انہیں	-510
وال	-511
▁بس	-512
اریخ	-513
▁شام	-514
رہ	-515
▁دھ	-516
▁شہ	-517
▁نک	-518
▁بند	-519
▁علی	-520
▁اند	-521
▁کرے	-522
▁جاتی	-523
▁وزیر	-524
اروں	-525
▁گھر	-526
▁کھلا	-527
▁استعمال	-528
سپ	-529
یمت	-530
▁ایا	-531
فت	-532
مد	-533
یب	-534
لف	-535
لو	-536
▁بح	-537
انوں	-538
▁مست	-539
▁ڈال	-540
▁کون	-541
▁بارے	-542
▁جاتے	-543
▁تاریخ	-544
▁زندگی	-545
لاح	-546
▁میڈ	-547
▁مسئلہ	-548
ائم	-549
▁ٹیسٹ	-550
▁گاڑی	-551
بہ	-552
سک	-553
اتی	-554
▁مک	-555
▁امریک	-556
▁سامنے	-557
▁ری	-558
▁سوال	-559
دا	-560
▁پیش	-561
▁کھی	-562
▁خیال	-563
▁قیمت	-564
سٹ	-565
ائر	-566
▁ٹی	-567
▁عام	-568
▁والی	-569
▁ریاست	-570
نوں	-571
▁شا	-572
▁خوب	-573
▁دکھ	-574
وش	-575
▁را	-576
▁بھارت	-577
اصل	-578
▁فو	-579
▁بین	-580
▁لیگ	-581
▁حاصل	-582
▁ورلڈ	-583
▁کھلاڑی	-584
نہ	-585
چی	-586
▁صح	-587
▁نم	-588
▁کرا	-589
وے	-590
لان	-591
▁خط	-592
▁مج	-593
▁بال	-594
▁کرد	-595
▁قانون	-596
▁ملا	-597
▁کمپ	-598
▁ہاتھ	-599
وت	-600
ٹس	-601
ریق	-602
▁وس	-603
▁کش	-604
▁جیسے	-605
▁کیسے	-606
صہ	-607
ڑا	-608
اتے	-609
▁اض	-610
▁روز	-611
ئر	-612
وا	-613
وز	-614
▁میچ	-615
▁مختلف	-616
ستہ	-617
▁سفر	-618
▁کمی	-619
اتا	-620
اہد	-621
▁تق	-622
▁ایم	-623
▁معاش	-624
▁وہاں	-625
▁اباد	-626
ظم	-627
لط	-628
نج	-629
▁تص	-630
▁ما	-631
▁ختم	-632
▁میرا	-633
▁میری	-634
▁شع	-635
اہور	-636
▁روا	-637
▁تعلق	-638
▁شکار	-639
▁لاہور	-640
ورٹ	-641
ہوں	-642
▁سپ	-643
▁رنگ	-644
▁وہی	-645
▁جاری	-646
▁سکتی	-647
▁قرار	-648
ظر	-649
وار	-650
▁فت	-651
لینڈ	-652
▁سکتے	-653
لز	-654
ابق	-655
▁شر	-656
▁عمل	-657
▁کہاں	-658
▁معاملہ	-659
تہ	-660
ونی	-661
یکس	-662
▁گو	-663
▁جمہ	-664
▁پار	-665
▁اضاف	-666
▁بلکہ	-667
▁دیتے	-668
▁عوام	-669
بل	-670
رت	-671
ایا	-672
▁تھیں	-673
▁تیار	-674
▁دوسروں	-675
ابل	-676
▁ھے	-677
▁عال	-678
▁اچھا	-679
▁بیٹھ	-680
▁تمام	-681
▁جائیں	-682
لس	-683
▁اچ	-684
▁تج	-685
ٹریل	-686
▁واپ	-687
▁پرو	-688
▁چھو	-689
▁یاد	-690
▁کامیا	-691
▁پور	-692
▁رکھتا	-693
خص	-694
▁پھ	-695
▁تین	-696
▁پری	-697
▁کیے	-698
▁ہوگا	-699
▁اش	-700
▁جھ	-701
▁نق	-702
▁ارد	-703
▁بڑی	-704
▁پاس	-705
زم	-706
ضی	-707
لب	-708
▁ظ	-709
باب	-710
لوم	-711
ودی	-712
یشن	-713
▁متع	-714
▁ناک	-715
▁دوست	-716
▁حق	-717
ائنل	-718
▁لگا	-719
▁نئے	-720
▁ابھی	-721
▁انتظ	-722
▁ترین	-723
▁نظام	-724
▁مسلمان	-725
کو	-726
بال	-727
▁اق	-728
▁بہتر	-729
▁کرتی	-730
▁کہیں	-731
▁کراچی	-732
یوں	-733
▁کت	-734
▁باز	-735
▁علاق	-736
▁فائنل	-737
▁میڈیا	-738
بات	-739
▁کن	-740
ماعت	-741
▁اسٹ	-742
▁نئی	-743
▁کوش	-744
▁حالات	-745
▁بت	-746
▁کارک	-747
▁ایشیا	-748
▁دوسری	-749
الت	-750
تاب	-751
▁فوج	-752
▁قوم	-753
▁مان	-754
▁نکل	-755
▁بجلی	-756
▁کوشش	-757
▁دونوں	-758
رز	-759
بان	-760
▁تن	-761
مالک	-762
▁اقت	-763
▁بڑے	-764
▁جانے	-765
▁جماعت	-766
▁ممالک	-767
▁شو	-768
▁مف	-769
▁اتے	-770
▁اگے	-771
▁بدل	-772
▁حکم	-773
▁خام	-774
▁کہہ	-775
▁مشکل	-776
▁انداز	-777
▁عمران	-778
▁تش	-779
▁جل	-780
▁ڈی	-781
▁رائے	-782
▁رہتا	-783
▁ہمارا	-784
مک	-785
ائد	-786
سوس	-787
▁اظ	-788
▁تا	-789
▁دان	-790
▁چیم	-791
▁شامل	-792
بو	-793
ندی	-794
▁خر	-795
▁ڈر	-796
▁رات	-797
▁چند	-798
▁چکے	-799
▁اداک	-800
▁بیان	-801
▁لگتا	-802
▁سیریز	-803
ائز	-804
دید	-805
▁مض	-806
دیلی	-807
▁خاص	-808
▁نتی	-809
▁چین	-810
▁ایسی	-811
▁کھیل	-812
▁کردیا	-813
▁تبدیلی	-814
تان	-815
▁قدر	-816
▁ڈاک	-817
▁مکمل	-818
▁پوری	-819
▁سع	-820
ردگی	-821
وریت	-822
▁احت	-823
▁جیت	-824
▁لکھ	-825
▁کان	-826
▁گرد	-827
▁جواب	-828
▁موقع	-829
▁اسانی	-830
▁بنیاد	-831
▁دیکھا	-832
انچ	-833
بار	-834
کار	-835
▁دا	-836
▁بول	-837
▁واقع	-838
زا	-839
ادر	-840
خاب	-841
قین	-842
▁اوپ	-843
▁جاپ	-844
▁راہ	-845
▁سیک	-846
▁مدد	-847
▁چھٹ	-848
▁کئی	-849
▁پرند	-850
▁معلوم	-851
▁انتخاب	-852
▁جمہوریت	-853
▁کارکردگی	-854
عی	-855
بول	-856
▁دیں	-857
▁بینک	-858
▁واپس	-859
▁اضافہ	-860
▁انہوں	-861
▁زمباب	-862
▁مسائل	-863
▁ناکام	-864
پا	-865
ہب	-866
▁دہ	-867
▁قد	-868
▁سما	-869
▁مری	-870
▁ترقی	-871
▁والا	-872
▁مطابق	-873
ڈر	-874
ڑے	-875
جئے	-876
▁مخ	-877
▁نش	-878
▁ہاں	-879
▁انکھ	-880
اط	-881
دور	-882
▁لم	-883
ارتی	-884
▁احس	-885
▁گزر	-886
▁قائم	-887
▁ٹھیک	-888
▁تعلیم	-889
▁سعودی	-890
▁ضروری	-891
▁متعلق	-892
▁اسٹریل	-893
جن	-894
ہار	-895
▁دع	-896
امات	-897
میان	-898
▁اخت	-899
▁اصل	-900
▁شخص	-901
▁خواہ	-902
▁کہنا	-903
▁اعلان	-904
▁عدالت	-905
▁امریکہ	-906
▁درمیان	-907
سر	-908
رات	-909
ریب	-910
▁ائ	-911
▁چی	-912
▁ادا	-913
▁انے	-914
▁شہر	-915
▁پاب	-916
▁کور	-917
▁یوں	-918
▁شاید	-919
▁چیمپ	-920
▁کمپنی	-921
زی	-922
ادت	-923
ارج	-924
چسپ	-925
یشت	-926
▁عب	-927
▁ڈھ	-928
ریقہ	-929
▁تیل	-930
▁حصہ	-931
▁منص	-932
▁اواز	-933
▁اچھی	-934
▁جیسا	-935
▁دینے	-936
▁چھوڑ	-937
▁دلچسپ	-938
▁کامیاب	-939
بح	-940
نت	-941
وہ	-942
اہم	-943
▁حل	-944
ونکہ	-945
▁خیر	-946
▁پھی	-947
▁اردو	-948
▁اندر	-949
▁حوال	-950
▁خوبص	-951
▁دیتا	-952
▁روایت	-953
▁ڈے	-954
ائیک	-955
احول	-956
▁منا	-957
▁ادمی	-958
▁باہر	-959
▁عملی	-960
▁محمد	-961
▁ماحول	-962
اگ	-963
وص	-964
ائش	-965
نام	-966
ہبی	-967
▁رس	-968
▁فط	-969
▁وی	-970
▁خبر	-971
▁قسم	-972
▁پیپ	-973
▁دورہ	-974
▁کہتے	-975
▁باتیں	-976
▁محسوس	-977
▁اقتدار	-978
▁زمبابوے	-979
وظ	-980
ہی	-981
حال	-982
ونا	-983
▁اے	-984
ولیس	-985
یاتی	-986
▁امت	-987
▁بیٹ	-988
▁حسن	-989
▁مقد	-990
▁مطال	-991
▁کتاب	-992
▁تحریک	-993
▁دوسرا	-994
لات	-995
مان	-996
وبی	-997
▁لاک	-998
▁نیا	-999
▁چلا	-1000
▁یون	-1001
▁رہیں	-1002
▁علما	-1003
▁قران	-1004
▁ڈاکٹر	-1005
▁سط	-1006
▁سچ	-1007
خلاف	-1008
▁بڑا	-1009
▁خری	-1010
لاقات	-1011
▁مزید	-1012
▁منظر	-1013
▁عالمی	-1014
▁پولیس	-1015
▁کپتان	-1016
▁ملاقات	-1017
▁انگلینڈ	-1018
اع	-1019
ہے	-1020
ارڈ	-1021
میر	-1022
یدہ	-1023
▁ایف	-1024
▁ایل	-1025
▁صبح	-1026
▁ویس	-1027
▁جاسک	-1028
▁تعالی	-1029
▁انگریز	-1030
▁صورتحال	-1031
امد	-1032
فاظ	-1033
میت	-1034
▁عر	-1035
▁ٹک	-1036
▁پو	-1037
▁اہم	-1038
▁حقی	-1039
▁ساز	-1040
▁عرب	-1041
▁مطلب	-1042
▁مقاب	-1043
▁موسم	-1044
▁ٹھنڈ	-1045
▁اظہار	-1046
▁پیپلز	-1047
شل	-1048
ریع	-1049
▁بک	-1050
▁لڑ	-1051
▁باع	-1052
▁بیم	-1053
▁تیز	-1054
▁خدا	-1055
▁سطح	-1056
▁سکے	-1057
▁ٹور	-1058
▁گیم	-1059
▁یور	-1060
▁اعظم	-1061
▁جارہ	-1062
▁دیگر	-1063
▁شاہد	-1064
▁کردی	-1065
▁جاپان	-1066
▁معیشت	-1067
▁پارٹی	-1068
▁چیزوں	-1069
▁چیمپئن	-1070
اڑ	-1071
شی	-1072
ھا	-1073
ارف	-1074
لوں	-1075
▁شب	-1076
رانس	-1077
▁جرم	-1078
▁قوت	-1079
▁معم	-1080
▁ہوج	-1081
▁جبکہ	-1082
▁یقین	-1083
▁کردار	-1084
جا	-1085
نم	-1086
ٹا	-1087
سنگ	-1088
▁حض	-1089
▁ون	-1090
پورٹ	-1091
▁باد	-1092
▁بنگ	-1093
▁دیر	-1094
▁روش	-1095
▁جائز	-1096
▁جانب	-1097
▁رہتی	-1098
▁پانچ	-1099
▁جنوبی	-1100
▁انتظار	-1101
ٹو	-1102
چا	-1103
اکی	-1104
گار	-1105
یشہ	-1106
▁فض	-1107
یکشن	-1108
▁دست	-1109
▁دین	-1110
▁سور	-1111
▁لیں	-1112
▁پیس	-1113
▁چکا	-1114
▁چکی	-1115
▁تقری	-1116
▁دینا	-1117
▁مہنگ	-1118
▁پورا	-1119
▁نتیجہ	-1120
▁کھانا	-1121
جو	-1122
مب	-1123
پے	-1124
ابر	-1125
ادہ	-1126
دود	-1127
راد	-1128
روف	-1129
صاف	-1130
▁شی	-1131
▁لط	-1132
▁ہا	-1133
یادت	-1134
▁اتی	-1135
▁صحت	-1136
▁زبان	-1137
▁نکال	-1138
▁گرین	-1139
▁بنایا	-1140
▁بھائی	-1141
▁قیادت	-1142
▁کھلاڑیوں	-1143
بن	-1144
کت	-1145
کان	-1146
یرت	-1147
▁عز	-1148
▁فٹ	-1149
▁روح	-1150
▁فکر	-1151
▁پڑے	-1152
▁ہند	-1153
▁امید	-1154
▁شہری	-1155
▁فیفا	-1156
▁پہلا	-1157
▁ہاکی	-1158
▁اسلامی	-1159
▁بھارتی	-1160
▁کیخلاف	-1161
اق	-1162
فظ	-1163
اکہ	-1164
ورس	-1165
چھے	-1166
▁جت	-1167
تیار	-1168
▁اتا	-1169
▁خوف	-1170
▁ماہ	-1171
▁باقی	-1172
▁تحقی	-1173
▁خراب	-1174
▁سلام	-1175
▁حوالے	-1176
▁چاہتا	-1177
فہ	-1178
قل	-1179
من	-1180
▁ھ	-1181
جیب	-1182
لاش	-1183
ینہ	-1184
▁رق	-1185
نجاب	-1186
یائی	-1187
▁ریک	-1188
▁مرت	-1189
▁چلے	-1190
▁بچوں	-1191
▁تلاش	-1192
▁حسین	-1193
▁راست	-1194
▁لیتے	-1195
▁ٹیکس	-1196
▁گیمز	-1197
▁بنگلہ	-1198
▁فرانس	-1199
▁والوں	-1200
گو	-1201
اند	-1202
ریہ	-1203
ندہ	-1204
ھیے	-1205
ریدی	-1206
▁باک	-1207
▁بلا	-1208
▁دار	-1209
▁ٹین	-1210
▁کھل	-1211
▁رہتے	-1212
▁پانی	-1213
▁کافی	-1214
▁گئیں	-1215
▁ازادی	-1216
▁دوران	-1217
▁پنجاب	-1218
▁چاہتے	-1219
▁معاملات	-1220
امی	-1221
بوط	-1222
لیٹ	-1223
مکن	-1224
▁حی	-1225
ائدہ	-1226
الیس	-1227
▁اعت	-1228
▁بتا	-1229
▁تیس	-1230
▁عمر	-1231
▁ونڈ	-1232
لاحیت	-1233
▁اسان	-1234
▁عجیب	-1235
▁مریض	-1236
▁ہوگی	-1237
▁جانتے	-1238
▁خواہش	-1239
▁رکھتے	-1240
▁رکھنے	-1241
▁فٹبال	-1242
▁پیچھے	-1243
▁بیماری	-1244
▁دکھائی	-1245
▁ریکارڈ	-1246
عض	-1247
کش	-1248
ہا	-1249
اور	-1250
روج	-1251
ستی	-1252
▁شم	-1253
▁طو	-1254
▁چا	-1255
▁جسے	-1256
▁دید	-1257
▁علا	-1258
▁چار	-1259
▁اتنا	-1260
▁اتنی	-1261
▁جانا	-1262
▁ضرور	-1263
▁جانور	-1264
▁منصوب	-1265
او	-1266
جے	-1267
ازہ	-1268
قبل	-1269
▁فن	-1270
▁لا	-1271
▁لن	-1272
▁درد	-1273
▁پڑھ	-1274
▁یار	-1275
▁احمد	-1276
▁انٹر	-1277
▁خارج	-1278
▁دیتی	-1279
▁علام	-1280
▁قابل	-1281
▁انصاف	-1282
▁حقیقت	-1283
▁خاموش	-1284
▁کاروب	-1285
▁صلاحیت	-1286
▁پابندی	-1287
تر	-1288
تھ	-1289
زد	-1290
وک	-1291
ٹن	-1292
ضوع	-1293
ائیڈ	-1294
▁ریس	-1295
▁لگے	-1296
▁مید	-1297
▁پیر	-1298
▁اپری	-1299
▁سرما	-1300
▁ملکی	-1301
▁ممکن	-1302
▁وجود	-1303
▁افراد	-1304
▁تحقیق	-1305
▁مضبوط	-1306
▁افریقہ	-1307
بھ	-1308
رڈ	-1309
شت	-1310
صے	-1311
لت	-1312
لاں	-1313
نوع	-1314
ٹرو	-1315
ڈیو	-1316
▁سہ	-1317
▁صف	-1318
▁مظ	-1319
▁چڑ	-1320
▁انع	-1321
▁اہل	-1322
▁بعض	-1323
▁تبد	-1324
▁سبب	-1325
▁سرف	-1326
▁فار	-1327
▁خرید	-1328
▁رکھا	-1329
▁زمین	-1330
▁لیتا	-1331
▁ماضی	-1332
▁وائر	-1333
▁احساس	-1334
▁جائزہ	-1335
▁روشنی	-1336
▁سرمایہ	-1337
▁چھٹائی	-1338
▁انگریزی	-1339
رل	-1340
صد	-1341
مق	-1342
مپ	-1343
الب	-1344
▁بو	-1345
▁سا	-1346
▁الگ	-1347
▁این	-1348
▁تیر	-1349
▁سزا	-1350
▁سنا	-1351
▁اسٹی	-1352
▁اعلی	-1353
▁حکمت	-1354
▁ظاہر	-1355
▁گویا	-1356
▁یورپ	-1357
▁یونی	-1358
▁ادارے	-1359
▁برابر	-1360
▁بنانے	-1361
▁سماجی	-1362
▁ہمیشہ	-1363
▁وزیراع	-1364
▁کیونکہ	-1365
ضح	-1366
ٹے	-1367
ائٹ	-1368
لیہ	-1369
ناہ	-1370
ندر	-1371
▁وط	-1372
ورتی	-1373
یوٹر	-1374
▁دوب	-1375
▁سنگ	-1376
▁مرح	-1377
▁منت	-1378
▁کرپ	-1379
▁کمز	-1380
▁گرو	-1381
▁اچھے	-1382
▁خواب	-1383
▁خوشی	-1384
▁سوشل	-1385
▁سیاح	-1386
▁ٹینس	-1387
▁تبدیل	-1388
▁فائدہ	-1389
▁میدان	-1390
▁اختیار	-1391
▁گاڑیوں	-1392
▁ہاتھوں	-1393
▁کمپیوٹر	-1394
▁خوبصورتی	-1395
بے	-1396
جر	-1397
وق	-1398
ائق	-1399
اہی	-1400
راز	-1401
سٹم	-1402
ھار	-1403
ہور	-1404
▁دش	-1405
▁رح	-1406
▁طا	-1407
▁قت	-1408
▁گل	-1409
انیہ	-1410
ریعے	-1411
شریف	-1412
گرام	-1413
▁اخر	-1414
▁انا	-1415
▁باو	-1416
▁دیش	-1417
▁شاہ	-1418
▁منہ	-1419
▁وطن	-1420
▁وفا	-1421
▁ٹام	-1422
▁پچھ	-1423
▁گرم	-1424
▁بھول	-1425
▁ترتی	-1426
▁تصور	-1427
▁عروج	-1428
▁میاں	-1429
▁پہلی	-1430
▁گرمی	-1431
▁انڈیز	-1432
▁ایمان	-1433
▁بالکل	-1434
▁وائرس	-1435
▁کھانے	-1436
▁اداروں	-1437
▁مستقبل	-1438
▁کورونا	-1439
▁نوازشریف	-1440
ڑک	-1441
گز	-1442
جات	-1443
راف	-1444
شتہ	-1445
ظیم	-1446
لسل	-1447
کیٹ	-1448
▁اٹ	-1449
▁رخ	-1450
▁نی	-1451
یران	-1452
▁بچے	-1453
▁سری	-1454
▁صلی	-1455
▁مال	-1456
▁ٹاک	-1457
▁گیس	-1458
ورسٹی	-1459
▁دیدی	-1460
▁سکیں	-1461
▁فتوی	-1462
▁لاکھ	-1463
▁ٹائم	-1464
▁پریش	-1465
▁کررہ	-1466
▁کرنی	-1467
▁ہونی	-1468
▁اصلاح	-1469
▁بجائے	-1470
▁جنہیں	-1471
▁ونڈوز	-1472
▁کیجئے	-1473
▁باوجود	-1474
حک	-1475
الو	-1476
اہے	-1477
باد	-1478
حان	-1479
▁حر	-1480
▁رک	-1481
▁سٹ	-1482
▁فک	-1483
▁لٹ	-1484
▁یک	-1485
▁اسک	-1486
▁برت	-1487
▁تھو	-1488
▁رقم	-1489
▁فرو	-1490
▁مہر	-1491
▁ہمت	-1492
▁امیر	-1493
▁جدید	-1494
▁حالت	-1495
▁طاقت	-1496
▁مفاد	-1497
▁پھول	-1498
▁ڈالر	-1499
▁گزار	-1500
▁رپورٹ	-1501
▁مصنوع	-1502
▁موضوع	-1503
▁کرپشن	-1504
▁سرفراز	-1505
▁مقابلے	-1506
▁اداکارہ	-1507
▁اسٹریلیا	-1508
رض	-1509
طہ	-1510
قف	-1511
ڈی	-1512
ائع	-1513
قاد	-1514
لاس	-1515
▁جز	-1516
▁شد	-1517
▁نر	-1518
رمین	-1519
▁الح	-1520
▁تحت	-1521
▁دبا	-1522
▁شوق	-1523
▁نیک	-1524
▁ویل	-1525
▁اوپن	-1526
▁جنرل	-1527
▁سسٹم	-1528
▁سورج	-1529
▁سونے	-1530
▁واضح	-1531
▁ڈائی	-1532
▁ڈرام	-1533
▁کتنے	-1534
▁ہوسک	-1535
▁فلموں	-1536
▁مزدور	-1537
▁معاشی	-1538
▁مقبول	-1539
▁ہوگیا	-1540
▁اداکار	-1541
▁انکھوں	-1542
▁پروگرام	-1543
▁وزیراعظم	-1544
▁یونیورسٹی	-1545
حہ	-1546
زل	-1547
نز	-1548
کپ	-1549
ہن	-1550
جیح	-1551
روس	-1552
لیز	-1553
یسر	-1554
یکٹ	-1555
▁طب	-1556
▁قب	-1557
▁لہ	-1558
▁پن	-1559
▁پک	-1560
▁حلق	-1561
▁سات	-1562
▁سڑک	-1563
▁سید	-1564
▁فرم	-1565
▁لفظ	-1566
▁ملی	-1567
▁کھو	-1568
▁گول	-1569
▁تاکہ	-1570
▁دینی	-1571
▁روپے	-1572
▁رکھے	-1573
▁گزرے	-1574
▁بتایا	-1575
▁بحران	-1576
▁ترجیح	-1577
▁تمہیں	-1578
▁سمجھا	-1579
▁فیصلے	-1580
▁کاربن	-1581
▁انٹرنی	-1582
▁علاقوں	-1583
اظ	-1584
ائب	-1585
انک	-1586
باح	-1587
بتہ	-1588
ربی	-1589
ونٹ	-1590
▁وق	-1591
انوی	-1592
عداد	-1593
ٹرول	-1594
▁اسل	-1595
▁الز	-1596
▁انھ	-1597
▁اکس	-1598
▁بجٹ	-1599
▁روم	-1600
▁روک	-1601
▁قتل	-1602
▁متح	-1603
▁معی	-1604
▁مول	-1605
▁ٹوٹ	-1606
▁پتہ	-1607
▁پڑی	-1608
▁کئے	-1609
▁کیف	-1610
رداری	-1611
▁الود	-1612
▁علیہ	-1613
▁قبول	-1614
▁ورنہ	-1615
▁وسلم	-1616
▁ویسٹ	-1617
▁گھنٹ	-1618
▁ہندو	-1619
▁البتہ	-1620
▁راستہ	-1621
▁زمانہ	-1622
▁لگانے	-1623
▁مشہور	-1624
▁ویلتھ	-1625
▁پرندے	-1626
▁افریدی	-1627
▁الیکشن	-1628
▁انسانی	-1629
▁کاروبار	-1630
▁انتخابات	-1631
دان	-1632
رفت	-1633
ریت	-1634
طور	-1635
ناک	-1636
ٹنگ	-1637
یمی	-1638
▁اط	-1639
▁رج	-1640
▁چن	-1641
▁چو	-1642
▁چک	-1643
▁یو	-1644
ائنس	-1645
وریا	-1646
کاری	-1647
▁بنی	-1648
▁تمہ	-1649
▁فرق	-1650
▁قیا	-1651
▁لگی	-1652
▁محف	-1653
▁مند	-1654
▁منظ	-1655
▁ہسپ	-1656
▁تازہ	-1657
▁جتنا	-1658
▁درخت	-1659
▁عالم	-1660
▁فطرت	-1661
▁فلاں	-1662
▁منزل	-1663
▁پورے	-1664
▁چاند	-1665
▁چینی	-1666
▁کامن	-1667
▁کروں	-1668
▁اخبار	-1669
▁اندازہ	-1670
▁بنیادی	-1671
▁معاشرے	-1672
▁اکسائیڈ	-1673
جد	-1674
پر	-1675
ابت	-1676
ساب	-1677
▁جم	-1678
▁خص	-1679
▁صن	-1680
▁نص	-1681
▁ہز	-1682
سٹری	-1683
▁اجت	-1684
▁باب	-1685
▁بجا	-1686
▁برا	-1687
▁برس	-1688
▁بور	-1689
▁ریٹ	-1690
▁سٹی	-1691
▁صدر	-1692
▁فون	-1693
▁محض	-1694
▁مقر	-1695
▁نقص	-1696
▁پڑا	-1697
ائیاں	-1698
▁حساب	-1699
▁سارے	-1700
▁مزاج	-1701
▁ملنے	-1702
▁الفاظ	-1703
▁بیٹھے	-1704
▁ترتیب	-1705
▁کشمیر	-1706
▁کمزور	-1707
▁احتساب	-1708
▁تعلقات	-1709
▁خاموشی	-1710
▁دوبارہ	-1711
▁دیکھیے	-1712
▁مارکیٹ	-1713
ضہ	-1714
عہ	-1715
قا	-1716
وچ	-1717
اون	-1718
اڑی	-1719
دین	-1720
عنی	-1721
لاب	-1722
▁بخ	-1723
▁بز	-1724
▁تس	-1725
▁خز	-1726
▁نس	-1727
▁گم	-1728
قرار	-1729
▁افس	-1730
▁افو	-1731
▁دھر	-1732
▁روس	-1733
▁سخت	-1734
▁متا	-1735
▁متو	-1736
▁ووٹ	-1737
▁کوچ	-1738
▁گاہ	-1739
▁اخلا	-1740
▁ادھر	-1741
▁بلند	-1742
▁بنتی	-1743
▁تیزی	-1744
▁داری	-1745
▁سربر	-1746
▁لگتی	-1747
▁محبت	-1748
▁مساف	-1749
▁پلان	-1750
▁پوچھ	-1751
▁پھیل	-1752
▁کپور	-1753
▁یعنی	-1754
▁اخلاق	-1755
▁امکان	-1756
▁رکھنا	-1757
▁سامان	-1758
▁فراہم	-1759
▁مقدمہ	-1760
▁کہانی	-1761
▁ہوئیں	-1762
▁انتظام	-1763
▁بہترین	-1764
▁جاسکتا	-1765
▁حکمران	-1766
▁دیکھنے	-1767
▁موجودہ	-1768
یح	-1769
اشت	-1770
افی	-1771
جان	-1772
شتے	-1773
لمی	-1774
ورا	-1775
▁ٹو	-1776
اتین	-1777
رحال	-1778
▁اصف	-1779
▁اقد	-1780
▁الط	-1781
▁انق	-1782
▁جسم	-1783
▁دلی	-1784
▁شدت	-1785
▁فتح	-1786
▁مرک	-1787
▁مرے	-1788
▁ملے	-1789
▁چلی	-1790
▁ائیں	-1791
▁ازما	-1792
▁ایکس	-1793
▁بنتا	-1794
▁دعوت	-1795
▁عادت	-1796
▁لمبی	-1797
▁لینڈ	-1798
▁مارچ	-1799
▁محنت	-1800
▁مقدم	-1801
▁موسی	-1802
▁میٹھ	-1803
▁پائے	-1804
▁باتوں	-1805
▁راستے	-1806
▁پالیس	-1807
▁امریکی	-1808
▁انعقاد	-1809
▁بہرحال	-1810
▁خواتین	-1811
▁قیمتوں	-1812
▁جماعتوں	-1813
▁کامیابی	-1814
▁مسلمانوں	-1815
صر	-1816
طی	-1817
پی	-1818
افٹ	-1819
دال	-1820
عیت	-1821
قید	-1822
نسی	-1823
پار	-1824
کیل	-1825
▁خد	-1826
▁دس	-1827
▁طے	-1828
▁عش	-1829
▁لح	-1830
ترال	-1831
▁ازم	-1832
▁اسپ	-1833
▁بری	-1834
▁دفا	-1835
▁سبز	-1836
▁سون	-1837
▁سکا	-1838
▁طبی	-1839
پارٹی	-1840
▁اخری	-1841
▁اوپر	-1842
▁بازی	-1843
▁بورڈ	-1844
▁تاہم	-1845
▁سابق	-1846
▁سازی	-1847
▁سنبھ	-1848
▁شادی	-1849
▁فطری	-1850
▁پہاڑ	-1851
▁پہلو	-1852
▁چھوٹ	-1853
▁ریلیز	-1854
▁سامنا	-1855
▁علاقے	-1856
▁محدود	-1857
▁محفوظ	-1858
▁معمول	-1859
▁چترال	-1860
▁کیفیت	-1861
▁اختلاف	-1862
▁اخلاقی	-1863
▁زرداری	-1864
▁سربراہ	-1865
▁ایشوریا	-1866
▁انتظامیہ	-1867
▁پیپلزپارٹی	-1868
فس	-1869
نو	-1870
الا	-1871
ربہ	-1872
واں	-1873
▁تہ	-1874
▁سف	-1875
▁پل	-1876
اہمی	-1877
بانی	-1878
لمان	-1879
▁ابی	-1880
▁بھگ	-1881
▁جلد	-1882
▁جون	-1883
▁خلی	-1884
▁ریل	-1885
▁زیر	-1886
▁سنی	-1887
▁سین	-1888
▁شان	-1889
▁شرم	-1890
▁صاف	-1891
▁قبل	-1892
▁لاز	-1893
▁مٹی	-1894
▁نیو	-1895
▁وار	-1896
▁ویب	-1897
▁کوئ	-1898
▁گفت	-1899
▁ہار	-1900
▁الحق	-1901
▁درست	-1902
▁ساری	-1903
▁شعور	-1904
▁لحاظ	-1905
▁لنکا	-1906
▁لینا	-1907
▁مخال	-1908
▁موقف	-1909
▁چاہے	-1910
▁کاری	-1911
انستان	-1912
▁اجتما	-1913
▁اقبال	-1914
▁انتہا	-1915
▁جانتا	-1916
▁مائیک	-1917
▁ملازم	-1918
▁نقصان	-1919
▁کبھار	-1920
▁اپریشن	-1921
▁دیکھتا	-1922
▁فیصلوں	-1923
▁انسانوں	-1924
جم	-1925
دھ	-1926
قہ	-1927
لش	-1928
چہ	-1929
ہم	-1930
ئیے	-1931
ائج	-1932
تاد	-1933
جاج	-1934
ختی	-1935
خیر	-1936
ریر	-1937
ستر	-1938
شیا	-1939
یتی	-1940
یدر	-1941
▁صد	-1942
▁عط	-1943
▁وڈ	-1944
▁خات	-1945
▁خال	-1946
▁داخ	-1947
▁راز	-1948
▁سند	-1949
▁شاع	-1950
▁عزت	-1951
▁مجم	-1952
▁مطم	-1953
▁نور	-1954
▁پہچ	-1955
▁گری	-1956
▁ہدا	-1957
وزیشن	-1958
▁بارش	-1959
▁براہ	-1960
▁بطور	-1961
▁بولی	-1962
▁حضرت	-1963
▁درجہ	-1964
▁شمار	-1965
▁مسجد	-1966
▁مقرر	-1967
▁مقصد	-1968
▁کتنی	-1969
▁گرفت	-1970
▁استاد	-1971
▁املیٹ	-1972
▁تحریر	-1973
▁سٹریل	-1974
▁عبادت	-1975
▁مرحلے	-1976
▁مسلسل	-1977
▁پچھلے	-1978
▁کرکٹر	-1979
▁احتجاج	-1980
▁برقرار	-1981
▁معاملے	-1982
▁پریشان	-1983
▁انڈسٹری	-1984
▁جماعتیں	-1985
سن	-1986
شہ	-1987
گا	-1988
ادو	-1989
تال	-1990
جیے	-1991
شنل	-1992
فرد	-1993
نٹی	-1994
▁ڈب	-1995
▁ہل	-1996
بتلا	-1997
یشنل	-1998
▁ایپ	-1999
▁خاط	-2000
▁خاک	-2001
▁دائ	-2002
▁زور	-2003
▁طلب	-2004
▁عرف	-2005
▁فیض	-2006
▁مرد	-2007
▁مشر	-2008
▁پود	-2009
▁ہنس	-2010
▁ہنگ	-2011
▁ہیر	-2012
ارفین	-2013
▁بھٹو	-2014
▁ترکی	-2015
▁جانی	-2016
▁حیرت	-2017
▁خصوص	-2018
▁صنعت	-2019
▁عامر	-2020
▁قیام	-2021
▁نماز	-2022
▁چلنے	-2023
▁کرکے	-2024
▁انڈیا	-2025
▁بولنے	-2026
▁تشریف	-2027
▁حقائق	-2028
▁روانہ	-2029
▁سالوں	-2030
▁عدلیہ	-2031
▁مبتلا	-2032
▁متحدہ	-2033
▁مسئلے	-2034
▁مصباح	-2035
▁منفرد	-2036
▁نشانہ	-2037
▁نوعیت	-2038
▁واقعہ	-2039
▁ٹھنڈی	-2040
▁گھنٹے	-2041
▁ہدایت	-2042
▁صارفین	-2043
▁قانونی	-2044
▁قیمتیں	-2045
▁خوبصورت	-2046
▁چیمپئنز	-2047
▁اسٹریلین	-2048
▁ہندوستان	-2049
اپ	-2050
سب	-2051
شر	-2052
امل	-2053
انگ	-2054
ایت	-2055
باز	-2056
برا	-2057
بیت	-2058
زمت	-2059
ستا	-2060
ظوظ	-2061
فرت	-2062
قات	-2063
لیق	-2064
مبر	-2065
منی	-2066
مود	-2067
ندن	-2068
ورہ	-2069
ویر	-2070
ٹرن	-2071
پاک	-2072
یاب	-2073
▁بگ	-2074
▁حم	-2075
▁ست	-2076
▁وو	-2077
▁پش	-2078
ترین	-2079
رائی	-2080
فاظت	-2081
یلنج	-2082
▁جنا	-2083
▁جنم	-2084
▁سرا	-2085
▁سرد	-2086
▁سلط	-2087
▁سنس	-2088
▁شکر	-2089
▁صبا	-2090
▁عزم	-2091
▁فری	-2092
▁پیم	-2093
▁پیک	-2094
▁اتنے	-2095
▁ازاد	-2096
▁بالی	-2097
▁خانہ	-2098
▁دباو	-2099
▁سیکھ	-2100
▁شعبے	-2101
▁ماہر	-2102
▁متعد	-2103
▁مجید	-2104
▁مرتب	-2105
▁مقام	-2106
▁نفرت	-2107
▁نوجو	-2108
▁وسطی	-2109
▁پیسہ	-2110
▁پیسے	-2111
▁ہوکر	-2112
▁ابادی	-2113
▁بھروس	-2114
▁تنقید	-2115
▁تیسرے	-2116
▁خزانہ	-2117
▁زمانے	-2118
▁سلمان	-2119
▁محظوظ	-2120
▁نتیجے	-2121
▁پرانے	-2122
▁چونکہ	-2123
▁چیلنج	-2124
▁گزشتہ	-2125
▁ہوگئے	-2126
▁تقریبا	-2127
▁جمہوری	-2128
▁دیکھنا	-2129
▁مطالبہ	-2130
▁ملازمت	-2131
▁ورلڈکپ	-2132
▁اجتماعی	-2133
اخ	-2134
چر	-2135
ڈا	-2136
ڈو	-2137
کس	-2138
جوم	-2139
سیم	-2140
ویں	-2141
یند	-2142
▁دب	-2143
▁رد	-2144
▁عص	-2145
▁عہ	-2146
▁لب	-2147
▁پا	-2148
اہوں	-2149
جنسی	-2150
قینا	-2151
لائی	-2152
▁امد	-2153
▁امر	-2154
▁برد	-2155
▁بیل	-2156
▁تنا	-2157
▁دعا	-2158
▁عقل	-2159
▁لطف	-2160
▁مصر	-2161
▁ممب	-2162
▁ناف	-2163
▁ٹیک	-2164
▁ائین	-2165
▁اصول	-2166
▁اظہر	-2167
▁جرمن	-2168
▁جلدی	-2169
▁جنگل	-2170
▁شراب	-2171
▁طویل	-2172
▁لائن	-2173
▁لینے	-2174
▁مارے	-2175
▁نشان	-2176
▁ٹیکن	-2177
▁چلتا	-2178
▁کیسی	-2179
ٹرولیم	-2180
▁اہستہ	-2181
▁بنائی	-2182
▁تعداد	-2183
▁جگہوں	-2184
▁خلیفہ	-2185
▁سوچنے	-2186
▁شخصیت	-2187
▁شہباز	-2188
▁فلمیں	-2189
▁مجموع	-2190
▁محمود	-2191
▁مصروف	-2192
▁ویڈیو	-2193
▁پابند	-2194
▁پرانی	-2195
▁پرواز	-2196
▁گفتگو	-2197
▁یقینا	-2198
▁امریکا	-2199
▁انقلاب	-2200
▁اٹھانا	-2201
▁بدترین	-2202
▁جاسکتی	-2203
▁دلچسپی	-2204
▁مصنوعات	-2205
▁مائیکروس	-2206
▁انٹرنیشنل	-2207
اض	-2208
لک	-2209
ئین	-2210
ادم	-2211
اقع	-2212
الہ	-2213
دری	-2214
لطی	-2215
نما	-2216
ہرے	-2217
یرہ	-2218
▁فل	-2219
▁پت	-2220
▁ہٹ	-2221
ائیٹ	-2222
رافی	-2223
زدیک	-2224
▁اول	-2225
▁بنے	-2226
▁خار	-2227
▁دیے	-2228
▁زلز	-2229
▁سلس	-2230
▁سوئ	-2231
▁سکی	-2232
▁شری	-2233
▁شور	-2234
▁عید	-2235
▁لائ	-2236
▁لبر	-2237
▁لمح	-2238
▁لوٹ	-2239
▁ماب	-2240
▁نبی	-2241
▁واب	-2242
▁پتا	-2243
▁چلو	-2244
▁ڈیز	-2245
رائیل	-2246
▁اختر	-2247
▁اخرا	-2248
▁اشنا	-2249
▁اینڈ	-2250
▁بارہ	-2251
▁بزنس	-2252
▁بڑھے	-2253
▁بھری	-2254
▁خطرہ	-2255
▁رہنے	-2256
▁سماج	-2257
▁علاج	-2258
▁قدرت	-2259
▁قدیم	-2260
▁لائے	-2261
▁مشرف	-2262
▁ناگہ	-2263
▁ٹرین	-2264
▁اسٹیٹ	-2265
▁افواج	-2266
▁بازار	-2267
▁تصویر	-2268
▁تقریر	-2269
▁دیکھو	-2270
▁علاوہ	-2271
▁فروخت	-2272
▁مرتبہ	-2273
▁مواقع	-2274
▁نزدیک	-2275
▁واپسی	-2276
▁وزارت	-2277
▁ٹیموں	-2278
▁ہوگئی	-2279
▁باکسنگ	-2280
▁دوستوں	-2281
▁سوالات	-2282
▁معمولی	-2283
▁ناکامی	-2284
▁اسرائیل	-2285
▁اقدامات	-2286
▁الزامات	-2287
▁جانوروں	-2288
▁خواہشات	-2289
▁کمپنیوں	-2290
▁مائیکروسافٹ	-2291
خی	-2292
دے	-2293
زہ	-2294
وف	-2295
انس	-2296
ولت	-2297
ہیز	-2298
▁جر	-2299
▁رش	-2300
▁زر	-2301
▁عق	-2302
▁قص	-2303
▁نت	-2304
صادی	-2305
ودار	-2306
ہرست	-2307
▁اتر	-2308
▁انج	-2309
▁ایٹ	-2310
▁بیر	-2311
▁بیک	-2312
▁حاد	-2313
▁زدہ	-2314
▁سکھ	-2315
▁شنا	-2316
▁ضیا	-2317
▁عدم	-2318
▁عشق	-2319
▁قات	-2320
▁قدم	-2321
▁لٹک	-2322
▁محک	-2323
▁میل	-2324
▁نار	-2325
▁ناق	-2326
▁وبا	-2327
▁چیئ	-2328
▁یکس	-2329
▁انتق	-2330
▁اگلے	-2331
▁ایئر	-2332
▁حیدر	-2333
▁خاطر	-2334
▁دائر	-2335
▁دلیل	-2336
▁دنوں	-2337
▁رسول	-2338
▁رویہ	-2339
▁زندہ	-2340
▁سرگر	-2341
▁سندھ	-2342
▁سیمی	-2343
▁عائد	-2344
▁قریب	-2345
▁لندن	-2346
▁لکھا	-2347
▁لیڈر	-2348
▁چھٹی	-2349
▁کیمپ	-2350
▁گناہ	-2351
▁یونس	-2352
▁انگلش	-2353
▁باہمی	-2354
▁بیٹھا	-2355
▁تنظیم	-2356
▁جارہے	-2357
▁جرمنی	-2358
▁حفاظت	-2359
▁سائنس	-2360
▁سائیک	-2361
▁علاقہ	-2362
▁لیجئے	-2363
▁مقدار	-2364
▁پرہیز	-2365
▁پشاور	-2366
▁چھوٹی	-2367
▁ایفیکٹ	-2368
▁برداشت	-2369
▁دیکھتے	-2370
▁معیاری	-2371
▁مقابلہ	-2372
▁اخبارات	-2373
▁اقتصادی	-2374
▁موجودگی	-2375
▁چیئرمین	-2376
شا	-2377
صل	-2378
اتر	-2379
بیع	-2380
راہ	-2381
گیا	-2382
ہنی	-2383
▁تف	-2384
▁طل	-2385
▁مب	-2386
وارڈ	-2387
وامی	-2388
ورٹی	-2389
یدگی	-2390
▁ارب	-2391
▁ایڈ	-2392
▁بجھ	-2393
▁برط	-2394
▁تائ	-2395
▁تلے	-2396
▁خطر	-2397
▁ریگ	-2398
▁سپر	-2399
▁شیط	-2400
▁ظلم	-2401
▁عطا	-2402
▁منٹ	-2403
▁مہم	-2404
▁ٹکر	-2405
▁پرا	-2406
▁پول	-2407
▁چیف	-2408
▁کلب	-2409
▁کوہ	-2410
▁کیم	-2411
▁ہوش	-2412
انائی	-2413
▁اسکے	-2414
▁حدود	-2415
▁رہنا	-2416
▁زائد	-2417
▁صحیح	-2418
▁ضائع	-2419
▁طالب	-2420
▁فلاح	-2421
▁لبرل	-2422
▁مرضی	-2423
▁میسر	-2424
▁نگار	-2425
▁وسیم	-2426
▁ویسے	-2427
▁پروف	-2428
▁پڑھی	-2429
▁کتنا	-2430
▁اسٹاک	-2431
▁بناتے	-2432
▁بہتری	-2433
▁تقسیم	-2434
▁ریلوے	-2435
▁عبدال	-2436
▁عرفان	-2437
▁مسترد	-2438
▁مطمئن	-2439
▁ممبئی	-2440
▁مہنگا	-2441
▁پوچھا	-2442
▁چیزیں	-2443
▁کمیٹی	-2444
▁کیجیے	-2445
پاکستان	-2446
▁اعتبار	-2447
▁ایوارڈ	-2448
▁حکومتی	-2449
▁خاندان	-2450
▁سرکاری	-2451
▁شاندار	-2452
▁علامات	-2453
▁معاشرہ	-2454
▁نوجوان	-2455
▁وابستہ	-2456
▁پالیسی	-2457
▁توانائی	-2458
▁سٹریلیا	-2459
▁مہنگائی	-2460
طل	-2461
ڈل	-2462
ابط	-2463
اتح	-2464
ارق	-2465
ازت	-2466
اسک	-2467
افت	-2468
امز	-2469
برد	-2470
سیع	-2471
عدہ	-2472
لیں	-2473
ونک	-2474
وید	-2475
ہوم	-2476
▁ئی	-2477
▁تخ	-2478
▁جگ	-2479
▁حت	-2480
▁حص	-2481
▁دف	-2482
▁سل	-2483
▁شپ	-2484
▁قل	-2485
▁وض	-2486
▁وف	-2487
▁کچ	-2488
▁ھو	-2489
ئنٹی	-2490
ارات	-2491
اراض	-2492
حکام	-2493
ہائی	-2494
ہروں	-2495
▁ارا	-2496
▁ارت	-2497
▁ارے	-2498
▁بان	-2499
▁جام	-2500
▁خرچ	-2501
▁رنز	-2502
▁ستم	-2503
▁سنچ	-2504
▁طوف	-2505
▁فضا	-2506
▁فلس	-2507
▁فیس	-2508
▁ناد	-2509
▁ناز	-2510
▁نفا	-2511
▁نفس	-2512
▁پلا	-2513
▁چڑھ	-2514
▁گور	-2515
الوجی	-2516
نامنٹ	-2517
نمائی	-2518
ینڈرڈ	-2519
▁ارام	-2520
▁ارجن	-2521
▁انڈے	-2522
▁بننے	-2523
▁بھلا	-2524
▁بیٹے	-2525
▁جھوٹ	-2526
▁رونا	-2527
▁سمیت	-2528
▁شرکت	-2529
▁شعیب	-2530
▁فرما	-2531
▁فریق	-2532
▁فوجی	-2533
▁قائد	-2534
▁قبضہ	-2535
▁مزاح	-2536
▁ملتا	-2537
▁ملتی	-2538
▁پڑتا	-2539
▁ڈیزل	-2540
▁کوار	-2541
▁کورٹ	-2542
▁ہزار	-2543
▁اجلاس	-2544
▁تشکیل	-2545
▁جاوید	-2546
▁جنگلی	-2547
▁حرارت	-2548
▁خوشبو	-2549
▁دانوں	-2550
▁سمندر	-2551
▁سوچتے	-2552
▁فہرست	-2553
▁مظاہر	-2554
▁مفہوم	-2555
▁مقابل	-2556
▁میڈرڈ	-2557
▁ناراض	-2558
▁نتائج	-2559
▁نیشنل	-2560
▁ٹرافی	-2561
▁پہاڑی	-2562
▁پہنچا	-2563
▁سائیکل	-2564
▁سمجھتا	-2565
▁سمجھنے	-2566
▁متعارف	-2567
▁ٹوئنٹی	-2568
▁استحکام	-2569
▁انسانیت	-2570
▁مہربانی	-2571
▁اسٹینڈرڈ	-2572
▁ٹورنامنٹ	-2573
خب	-2574
دف	-2575
احد	-2576
امہ	-2577
تیں	-2578
حاد	-2579
رمپ	-2580
زاد	-2581
فتے	-2582
نسر	-2583
ٹرل	-2584
ٹرک	-2585
پور	-2586
پیش	-2587
چار	-2588
گری	-2589
▁بص	-2590
▁رم	-2591
▁نع	-2592
▁نگ	-2593
بادل	-2594
خصوص	-2595
ریعہ	-2596
یالی	-2597
▁الی	-2598
▁امن	-2599
▁برب	-2600
▁بیچ	-2601
▁بیگ	-2602
▁ترک	-2603
▁حوص	-2604
▁خون	-2605
▁درو	-2606
▁رفت	-2607
▁شائ	-2608
▁قرض	-2609
▁مئی	-2610
▁محب	-2611
▁مرگ	-2612
▁ملز	-2613
▁نقل	-2614
▁ویم	-2615
▁پاگ	-2616
▁پکے	-2617
▁پیچ	-2618
▁ڈائ	-2619
▁ڈار	-2620
کاروں	-2621
▁اترے	-2622
▁امین	-2623
▁اٹھا	-2624
▁باری	-2625
▁توجہ	-2626
▁تیند	-2627
▁حامل	-2628
▁دانش	-2629
▁دہشت	-2630
▁رحمت	-2631
▁روشن	-2632
▁سوئی	-2633
▁سکول	-2634
▁طلاق	-2635
▁عظیم	-2636
▁عمدہ	-2637
▁فاتح	-2638
▁قاتل	-2639
▁قصور	-2640
▁مجاز	-2641
▁مریم	-2642
▁نمائ	-2643
▁واحد	-2644
▁ٹرمپ	-2645
▁کارڈ	-2646
▁کمال	-2647
▁کھڑا	-2648
▁گمان	-2649
▁ہفتے	-2650
▁افسوس	-2651
▁امتیا	-2652
▁انھوں	-2653
▁اہمیت	-2654
▁ایشین	-2655
▁بناتا	-2656
▁تجربہ	-2657
▁تصادم	-2658
▁تعمیر	-2659
▁جارہا	-2660
▁حلقوں	-2661
▁خارجہ	-2662
▁خیالی	-2663
▁درپیش	-2664
▁سوچنا	-2665
▁فرشتے	-2666
▁محکمہ	-2667
▁مرکزی	-2668
▁مسافر	-2669
▁ملکوں	-2670
▁مناسب	-2671
▁مناظر	-2672
▁مہارت	-2673
▁پہنچی	-2674
▁پہچان	-2675
▁کررہی	-2676
▁کینسر	-2677
▁تاریخی	-2678
▁جاپانی	-2679
▁دیکھیں	-2680
▁روایتی	-2681
▁سنبھال	-2682
▁مقامات	-2683
▁منصوبہ	-2684
▁موسیقی	-2685
▁پھولوں	-2686
▁کوارٹر	-2687
▁ہسپتال	-2688
▁ٹیکنالوجی	-2689
خر	-2690
خو	-2691
دل	-2692
زو	-2693
عے	-2694
اصد	-2695
اہل	-2696
بین	-2697
توں	-2698
ریم	-2699
سٹک	-2700
ضان	-2701
فیظ	-2702
مار	-2703
میٹ	-2704
ویت	-2705
چین	-2706
ڈیم	-2707
کھا	-2708
ھیر	-2709
یسک	-2710
یفہ	-2711
یکا	-2712
▁تے	-2713
▁حد	-2714
▁زخ	-2715
▁عظ	-2716
▁ند	-2717
ائرم	-2718
ابطہ	-2719
مبلی	-2720
نامہ	-2721
ٹینا	-2722
چینج	-2723
گزیر	-2724
▁امی	-2725
▁بزم	-2726
▁بسم	-2727
▁بوت	-2728
▁بیش	-2729
▁راج	-2730
▁سرخ	-2731
▁سہی	-2732
▁سیٹ	-2733
▁شبہ	-2734
▁شدہ	-2735
▁صدی	-2736
▁عرض	-2737
▁محر	-2738
▁ملت	-2739
▁منق	-2740
▁منی	-2741
▁نظم	-2742
▁نگر	-2743
▁وفد	-2744
▁ووڈ	-2745
▁ٹاپ	-2746
▁ٹھک	-2747
▁چمک	-2748
▁ہدف	-2749
▁ہور	-2750
▁ہوچ	-2751
ربائی	-2752
▁ارڈر	-2753
▁الاق	-2754
▁برتن	-2755
▁توقع	-2756
▁تھری	-2757
▁تیرے	-2758
▁جمال	-2759
▁جناب	-2760
▁جنون	-2761
▁خالی	-2762
▁خطرے	-2763
▁دفاع	-2764
▁دلکش	-2765
▁دودھ	-2766
▁دولت	-2767
▁سادہ	-2768
▁شہید	-2769
▁عرصہ	-2770
▁عرصے	-2771
▁عملے	-2772
▁فضول	-2773
▁قدرے	-2774
▁مصال	-2775
▁نبات	-2776
▁نظری	-2777
▁پھنس	-2778
▁چلتے	-2779
▁چولہ	-2780
▁کروڑ	-2781
▁کمرے	-2782
▁گروہ	-2783
▁گھوم	-2784
▁ہندی	-2785
▁ہیرو	-2786
ائرمنٹ	-2787
▁احسان	-2788
▁اندوز	-2789
▁انکار	-2790
▁انھیں	-2791
▁اچانک	-2792
▁ایٹمی	-2793
▁برامد	-2794
▁بنائے	-2795
▁بڑھتی	-2796
▁تخلیق	-2797
▁تیاری	-2798
▁حوصلہ	-2799
▁دائرے	-2800
▁درامد	-2801
▁درکار	-2802
▁رجحان	-2803
▁رمضان	-2804
▁سلسلہ	-2805
▁سنچری	-2806
▁شکریہ	-2807
▁صاحبہ	-2808
▁طریقہ	-2809
▁عقیدہ	-2810
▁مدینہ	-2811
▁معروف	-2812
▁مقاصد	-2813
▁مقامی	-2814
▁منتخب	-2815
▁مکانی	-2816
▁میٹھے	-2817
▁نیوزی	-2818
▁پرستی	-2819
▁پرندہ	-2820
▁پھیلا	-2821
▁پہنچے	-2822
▁اسمبلی	-2823
▁امتحان	-2824
▁انکھیں	-2825
▁بھروسہ	-2826
▁تمہاری	-2827
▁روحانی	-2828
▁ناگزیر	-2829
▁ناگہاں	-2830
▁ہوسکتی	-2831
▁انتہائی	-2832
▁پیداوار	-2833
▁ارجنٹینا	-2834
▁الاقوامی	-2835
▁ایکسچینج	-2836
▁ریٹائرمنٹ	-2837
حص	-2838
سط	-2839
شے	-2840
طر	-2841
مے	-2842
نر	-2843
کم	-2844
احت	-2845
امت	-2846
اکھ	-2847
بیر	-2848
ردہ	-2849
زوں	-2850
وئی	-2851
واڈ	-2852
ویل	-2853
کیا	-2854
▁اڑ	-2855
▁نج	-2856
▁وح	-2857
ئنات	-2858
ائٹل	-2859
اویہ	-2860
رائع	-2861
سمین	-2862
سینے	-2863
لامی	-2864
وراک	-2865
ورلڈ	-2866
ولیت	-2867
▁اسم	-2868
▁الو	-2869
▁اون	-2870
▁اڑا	-2871
▁بدن	-2872
▁بہر	-2873
▁تفص	-2874
▁تمھ	-2875
▁جیب	-2876
▁دھو	-2877
▁روب	-2878
▁سکہ	-2879
▁فرد	-2880
▁فرض	-2881
▁فیل	-2882
▁قلم	-2883
▁لنک	-2884
▁منس	-2885
▁موت	-2886
▁نمک	-2887
▁ویز	-2888
▁پان	-2889
▁پیا	-2890
▁کاش	-2891
دورفت	-2892
لینڈز	-2893
▁اجرا	-2894
▁ارزو	-2895
▁برپا	-2896
▁بلوچ	-2897
▁بننا	-2898
▁بڑھا	-2899
▁بہار	-2900
▁جھوم	-2901
▁حتمی	-2902
▁حضور	-2903
▁حفیظ	-2904
▁دراز	-2905
▁دہلی	-2906
▁سارا	-2907
▁شمال	-2908
▁صادر	-2909
▁طریق	-2910
▁فکری	-2911
▁لازم	-2912
▁مختص	-2913
▁مشرو	-2914
▁معاف	-2915
▁ملیں	-2916
▁منصب	-2917
▁نوٹس	-2918
▁نکلے	-2919
▁وسیع	-2920
▁پتھر	-2921
▁پلئی	-2922
▁چاہی	-2923
▁کالم	-2924
▁کرسک	-2925
▁کینٹ	-2926
▁کینی	-2927
▁گردی	-2928
▁گروپ	-2929
▁ہجوم	-2930
▁اجازت	-2931
▁اضافے	-2932
▁ایران	-2933
▁ایکسپ	-2934
▁تھوڑا	-2935
▁تھوڑی	-2936
▁حیران	-2937
▁خلافت	-2938
▁دیکھی	-2939
▁سراسر	-2940
▁سلطنت	-2941
▁سنائی	-2942
▁سنٹرل	-2943
▁سپریم	-2944
▁شہزاد	-2945
▁مشورہ	-2946
▁ٹھنڈے	-2947
▁ٹیمیں	-2948
▁پسینے	-2949
▁چھوٹے	-2950
▁گندگی	-2951
▁بربادی	-2952
▁بڑھانے	-2953
▁خطرناک	-2954
▁روزگار	-2955
▁سلیکشن	-2956
▁شہریوں	-2957
▁ماہرین	-2958
▁متبادل	-2959
▁مریضوں	-2960
▁مشکلات	-2961
▁منصوبے	-2962
▁منظوری	-2963
▁ناقابل	-2964
▁نمودار	-2965
▁والدین	-2966
▁پہنچنے	-2967
▁ڈاکٹرز	-2968
▁کائنات	-2969
▁ہوجاتا	-2970
▁امدورفت	-2971
▁بیٹسمین	-2972
▁تیاریاں	-2973
▁مطالبات	-2974
▁فیفاورلڈ	-2975
ضا	-2976
قے	-2977
وخ	-2978
کٹ	-2979
ھل	-2980
حکم	-2981
راض	-2982
ربت	-2983
ستے	-2984
صاب	-2985
لوب	-2986
لیے	-2987
نڈی	-2988
نگز	-2989
ودہ	-2990
ڈنگ	-2991
یسی	-2992
یشل	-2993
▁جے	-2994
▁دم	-2995
▁نچ	-2996
▁چر	-2997
▁کٹ	-2998
انکہ	-2999
بارک	-3000
رحمن	-3001
سیجن	-3002
ندرز	-3003
ویتا	-3004
گوار	-3005
▁بچن	-3006
▁بید	-3007
▁تار	-3008
▁توڑ	-3009
▁دام	-3010
▁دہر	-3011
▁سیر	-3012
▁صبر	-3013
▁صوب	-3014
▁فرا	-3015
▁قاب	-3016
▁مجب	-3017
▁معص	-3018
▁مقب	-3019
▁نرخ	-3020
▁نون	-3021
▁چاٹ	-3022
▁کتا	-3023
▁کرن	-3024
▁کوک	-3025
▁گوش	-3026
یرانی	-3027
▁المی	-3028
▁اپشن	-3029
▁بستر	-3030
▁بھگت	-3031
▁تعین	-3032
▁توکل	-3033
▁جہاز	-3034
▁حرکت	-3035
▁خوبی	-3036
▁سازش	-3037
▁ساکھ	-3038
▁سختی	-3039
▁شدید	-3040
▁فورا	-3041
▁فوری	-3042
▁مارا	-3043
▁نکلی	-3044
▁واٹس	-3045
▁ٹیلی	-3046
▁پڑتے	-3047
▁پڑیں	-3048
▁چائے	-3049
▁چارج	-3050
▁چارہ	-3051
▁ڈیسک	-3052
▁کھڑے	-3053
▁گردش	-3054
▁اتحاد	-3055
▁ارادہ	-3056
▁ارمین	-3057
▁اسلوب	-3058
▁اسٹری	-3059
▁اعصاب	-3060
▁الیون	-3061
▁باکسر	-3062
▁بدولت	-3063
▁بڑھنے	-3064
▁بھاری	-3065
▁تعاون	-3066
▁جارہی	-3067
▁جنہوں	-3068
▁جھونک	-3069
▁حوالہ	-3070
▁خوراک	-3071
▁دوچار	-3072
▁دھونا	-3073
▁سوچتا	-3074
▁شویتا	-3075
▁طوفان	-3076
▁عوامی	-3077
▁لٹکنا	-3078
▁لگائے	-3079
▁ملتان	-3080
▁مہمان	-3081
▁نارمل	-3082
▁نظریہ	-3083
▁نہایت	-3084
▁وضاحت	-3085
▁کررہے	-3086
▁گوادر	-3087
▁الطبیع	-3088
▁اکسیجن	-3089
▁خیالات	-3090
▁داستان	-3091
▁دستیاب	-3092
▁قلندرز	-3093
▁لاکھوں	-3094
▁مخالفت	-3095
▁مستحکم	-3096
▁مصالحہ	-3097
▁مصنوعی	-3098
▁ہوتاہے	-3099
▁ہوجاتے	-3100
▁ہوسکتا	-3101
▁امتیازی	-3102
▁اپریٹنگ	-3103
▁حالانکہ	-3104
▁خوشگوار	-3105
▁مقبولیت	-3106
زب	-3107
مر	-3108
پن	-3109
چے	-3110
یط	-3111
یف	-3112
انت	-3113
تمل	-3114
جمہ	-3115
خوش	-3116
دوں	-3117
راپ	-3118
رتی	-3119
فتہ	-3120
لتا	-3121
لیا	-3122
لیو	-3123
میل	-3124
ولا	-3125
ویز	-3126
ٹال	-3127
ٹرز	-3128
ڈول	-3129
گرد	-3130
یرے	-3131
▁بٹ	-3132
▁سح	-3133
▁طع	-3134
▁وع	-3135
▁کد	-3136
ادیا	-3137
اہدے	-3138
باتی	-3139
برای	-3140
تماد	-3141
تمام	-3142
فرنس	-3143
لوار	-3144
ملکت	-3145
کشاف	-3146
کوئی	-3147
▁ائر	-3148
▁ابت	-3149
▁اکھ	-3150
▁تنگ	-3151
▁جوش	-3152
▁حزب	-3153
▁حما	-3154
▁روڈ	-3155
▁شرح	-3156
▁شرٹ	-3157
▁شکل	-3158
▁طرز	-3159
▁فخر	-3160
▁قصد	-3161
▁متب	-3162
▁محت	-3163
▁مدت	-3164
▁مرو	-3165
▁مزد	-3166
▁معج	-3167
▁معز	-3168
▁مقت	-3169
▁منح	-3170
▁منگ	-3171
▁مٹھ	-3172
▁نقط	-3173
▁نمٹ	-3174
▁نکھ	-3175
▁وزن	-3176
▁چوت	-3177
▁چھپ	-3178
▁گرا	-3179
▁گلی	-3180
▁گنج	-3181
▁گند	-3182
ائیوں	-3183
ائیٹڈ	-3184
ائیگی	-3185
سٹائل	-3186
▁اشیا	-3187
▁افسر	-3188
▁امور	-3189
▁بوجھ	-3190
▁بچپن	-3191
▁بھاگ	-3192
▁بھیج	-3193
▁بیگم	-3194
▁تیری	-3195
▁جہاد	-3196
▁حروف	-3197
▁حساس	-3198
▁حصول	-3199
▁حلقے	-3200
▁دبئی	-3201
▁دکان	-3202
▁ریاض	-3203
▁ریال	-3204
▁سائن	-3205
▁سوچا	-3206
▁شعبہ	-3207
▁فتوے	-3208
▁لانا	-3209
▁مالی	-3210
▁محیط	-3211
▁مخلو	-3212
▁مسلط	-3213
▁مہیا	-3214
▁میچز	-3215
▁نامے	-3216
▁نجات	-3217
▁وادی	-3218
▁وقار	-3219
▁پاتا	-3220
▁پردہ	-3221
▁پودے	-3222
▁چاھے	-3223
▁کلاس	-3224
▁کلام	-3225
▁کویت	-3226
▁کھول	-3227
▁کہنے	-3228
▁گریڈ	-3229
▁گوشت	-3230
▁گولڈ	-3231
▁گولی	-3232
▁ہلکی	-3233
▁ہمار	-3234
سمبرای	-3235
▁ادارہ	-3236
▁اننگز	-3237
▁اوقات	-3238
▁بحالی	-3239
▁بدنام	-3240
▁بنانا	-3241
▁بڑھنا	-3242
▁بیلجی	-3243
▁بیٹنگ	-3244
▁ترجمہ	-3245
▁تقویت	-3246
▁تلوار	-3247
▁تیسری	-3248
▁جاتیں	-3249
▁جوتوں	-3250
▁خاتون	-3251
▁داخلہ	-3252
▁روبوٹ	-3253
▁سرگرم	-3254
▁سوائے	-3255
▁سپاہی	-3256
▁سپورٹ	-3257
▁شریعت	-3258
▁شمالی	-3259
▁شیطان	-3260
▁علامہ	-3261
▁فریدی	-3262
▁لطافت	-3263
▁لگادو	-3264
▁متعدد	-3265
▁محروم	-3266
▁مخالف	-3267
▁مخصوص	-3268
▁مشتمل	-3269
▁مملکت	-3270
▁منتظر	-3271
▁مہنگی	-3272
▁میٹھا	-3273
▁ناخوش	-3274
▁وفاقی	-3275
▁ٹائٹل	-3276
▁پسندی	-3277
▁پیشکش	-3278
▁کرلیا	-3279
▁کوکچھ	-3280
▁کھیلا	-3281
▁ازمائش	-3282
▁اعتماد	-3283
▁افسردہ	-3284
▁اہتمام	-3285
▁تیندوا	-3286
▁خصوصیت	-3287
▁خوابوں	-3288
▁راہنما	-3289
▁روایات	-3290
▁سلامتی	-3291
▁سمجھتے	-3292
▁سمجھنا	-3293
▁شروعات	-3294
▁فرمائے	-3295
▁ویسٹرن	-3296
▁پرندوں	-3297
▁پوزیشن	-3298
ربائیجان	-3299
▁اپوزیشن	-3300
▁ترجیحات	-3301
▁مزدوروں	-3302
▁منصوبوں	-3303
▁کانفرنس	-3304
▁بیماریوں	-3305
▁نمائندگی	-3306
سمبرایجنسی	-3307
ئم	-3308
اٹ	-3309
اے	-3310
دد	-3311
رگ	-3312
ضے	-3313
فق	-3314
لر	-3315
ازن	-3316
اسٹ	-3317
افر	-3318
افظ	-3319
الم	-3320
بود	-3321
تام	-3322
حاق	-3323
سلو	-3324
شار	-3325
منٹ	-3326
مکش	-3327
ندگ	-3328
وان	-3329
وسی	-3330
ومی	-3331
ٹرا	-3332
کرہ	-3333
یاط	-3334
یتھ	-3335
▁تل	-3336
▁جج	-3337
▁جد	-3338
▁شے	-3339
▁کف	-3340
▁گن	-3341
ادات	-3342
امزن	-3343
حصار	-3344
راصل	-3345
ستگی	-3346
طراب	-3347
طلاح	-3348
لیمی	-3349
وریس	-3350
ومیت	-3351
ھیرا	-3352
▁ابن	-3353
▁الب	-3354
▁الم	-3355
▁ایج	-3356
▁بلے	-3357
▁بیت	-3358
▁تاج	-3359
▁ترق	-3360
▁ترے	-3361
▁جشن	-3362
▁جوڑ	-3363
▁حصے	-3364
▁خیز	-3365
▁داد	-3366
▁دھا	-3367
▁روپ	-3368
▁ریف	-3369
▁سلو	-3370
▁سمت	-3371
▁صدا	-3372
▁قار	-3373
▁لان	-3374
▁لسی	-3375
▁مضم	-3376
▁مین	-3377
▁نسل	-3378
▁نوک	-3379
▁وین	-3380
▁چکھ	-3381
▁چھا	-3382
▁چھی	-3383
▁ڈیل	-3384
▁گھٹ	-3385
سلونا	-3386
ندگان	-3387
وردار	-3388
کریاں	-3389
▁امنڈ	-3390
▁انکی	-3391
▁انکے	-3392
▁اورا	-3393
▁اکرم	-3394
▁بادل	-3395
▁تربی	-3396
▁جبری	-3397
▁جتنی	-3398
▁حیات	-3399
▁رواں	-3400
▁سنتا	-3401
▁سنگھ	-3402
▁سپرد	-3403
▁شکری	-3404
▁طارق	-3405
▁عزیز	-3406
▁لانے	-3407
▁لگتے	-3408
▁لیئے	-3409
▁مراد	-3410
▁مرنے	-3411
▁معزز	-3412
▁مناف	-3413
▁نصیب	-3414
▁نکلا	-3415
▁نہاد	-3416
▁وافر	-3417
▁پاگل	-3418
▁چرچا	-3419
▁چھپا	-3420
▁ڈاکو	-3421
▁ڈھون	-3422
▁کرلی	-3423
▁کریب	-3424
▁کچرا	-3425
▁گرما	-3426
▁گیند	-3427
▁ہنسی	-3428
وریائی	-3429
▁ائینی	-3430
▁ارتقا	-3431
▁اسحاق	-3432
▁اسمان	-3433
▁اسٹار	-3434
▁الزام	-3435
▁امدید	-3436
▁انعام	-3437
▁تاہوں	-3438
▁تجارت	-3439
▁تجویز	-3440
▁تسلسل	-3441
▁تعارف	-3442
▁تعبیر	-3443
▁جاننے	-3444
▁جگہیں	-3445
▁حضرات	-3446
▁خبریں	-3447
▁دراصل	-3448
▁دفاعی	-3449
▁دیجئے	-3450
▁رکھتی	-3451
▁ساتھی	-3452
▁شکاری	-3453
▁فکسنگ	-3454
▁قدرتی	-3455
▁لازمی	-3456
▁لکھتے	-3457
▁لکھنے	-3458
▁لگانا	-3459
▁مابعد	-3460
▁مبارک	-3461
▁مشرقی	-3462
▁معیار	-3463
▁مقدمے	-3464
▁نکالا	-3465
▁پودوں	-3466
▁پٹرول	-3467
▁چاہئے	-3468
▁چھٹنی	-3469
▁ڈبلیو	-3470
▁کتابی	-3471
▁کردیں	-3472
▁کشمکش	-3473
▁گامزن	-3474
▁اصطلاح	-3475
▁اضطراب	-3476
▁الودگی	-3477
▁انحصار	-3478
▁اٹھاتا	-3479
▁بوتلیں	-3480
▁بیٹھنے	-3481
▁تجارتی	-3482
▁دانستہ	-3483
▁دروازہ	-3484
▁دکھانے	-3485
▁شناختی	-3486
▁فرمایا	-3487
▁قارئین	-3488
▁متواتر	-3489
▁مجموعہ	-3490
▁مطالعہ	-3491
▁نگرانی	-3492
▁پلاسٹک	-3493
▁ڈراموں	-3494
▁کرسکتے	-3495
▁اخراجات	-3496
▁ارمینیا	-3497
▁اسٹیڈیم	-3498
▁انتخابی	-3499
▁انٹرنیٹ	-3500
▁بیلجیئم	-3501
▁ترقیاتی	-3502
▁معاشرتی	-3503
▁پروفیسر	-3504
▁ڈاکٹروں	-3505
▁اخلاقیات	-3506
▁بارسلونا	-3507
▁پیٹرولیم	-3508
▁کمپیوٹرز	-3509
▁یونائیٹڈ	-3510
▁اسٹوریائی	-3511
▁ماحولیاتی	-3512
زے	-3513
سا	-3514
مٹ	-3515
وڑ	-3516
ٹہ	-3517
▁ے	-3518
ائو	-3519
الک	-3520
اکو	-3521
باں	-3522
بلک	-3523
بوت	-3524
جوہ	-3525
حمت	-3526
ختہ	-3527
سری	-3528
شاہ	-3529
عات	-3530
عمل	-3531
لیت	-3532
منگ	-3533
میں	-3534
ندا	-3535
نڈر	-3536
نیل	-3537
نیک	-3538
وبا	-3539
وتا	-3540
ووں	-3541
پنے	-3542
گیز	-3543
ہری	-3544
یلی	-3545
ینگ	-3546
▁بم	-3547
▁سج	-3548
▁عج	-3549
▁مے	-3550
▁وص	-3551
▁ڈا	-3552
▁یق	-3553
ائیے	-3554
ابھی	-3555
احوں	-3556
انچہ	-3557
انین	-3558
انیے	-3559
خائر	-3560
رانی	-3561
علیم	-3562
فقار	-3563
مقاب	-3564
ناہٹ	-3565
نمنٹ	-3566
واری	-3567
وایس	-3568
وبست	-3569
ونما	-3570
ٹیاں	-3571
یریت	-3572
▁ارش	-3573
▁اسد	-3574
▁افت	-3575
▁بجے	-3576
▁برخ	-3577
▁برو	-3578
▁بنو	-3579
▁تما	-3580
▁تنہ	-3581
▁حاض	-3582
▁راش	-3583
▁رشک	-3584
▁رضی	-3585
▁رکا	-3586
▁سبق	-3587
▁سحر	-3588
▁عنہ	-3589
▁عہد	-3590
▁فال	-3591
▁فضل	-3592
▁فور	-3593
▁لیڈ	-3594
▁ماس	-3595
▁مسک	-3596
▁معت	-3597
▁معر	-3598
▁مچا	-3599
▁نما	-3600
▁نیپ	-3601
▁ولی	-3602
▁ٹکٹ	-3603
▁پرس	-3604
▁پرچ	-3605
▁پوڈ	-3606
▁پیٹ	-3607
▁چرا	-3608
▁چوہ	-3609
▁ڈیو	-3610
▁کرم	-3611
▁گار	-3612
▁گہر	-3613
▁ہرا	-3614
▁ہوس	-3615
▁یوس	-3616
بادلہ	-3617
فرادی	-3618
مقابل	-3619
▁ابھر	-3620
▁احسن	-3621
▁اساس	-3622
▁انکو	-3623
▁اکشے	-3624
▁بحری	-3625
▁تباہ	-3626
▁تحفظ	-3627
▁تحیر	-3628
▁تقاض	-3629
▁جنات	-3630
▁جوہر	-3631
▁جھلک	-3632
▁جیسی	-3633
▁حقوق	-3634
▁حملہ	-3635
▁خالص	-3636
▁خطاب	-3637
▁داخل	-3638
▁دانت	-3639
▁دریا	-3640
▁دشمن	-3641
▁دکھا	-3642
▁رجوع	-3643
▁رنگی	-3644
▁روزہ	-3645
▁رویے	-3646
▁رکھی	-3647
▁زحمت	-3648
▁زلمی	-3649
▁زیرت	-3650
▁سانس	-3651
▁سروس	-3652
▁سستا	-3653
▁سٹاف	-3654
▁شاعر	-3655
▁صفیہ	-3656
▁طبقے	-3657
▁طلسم	-3658
▁فائر	-3659
▁فارم	-3660
▁فیشن	-3661
▁لایا	-3662
▁لگنا	-3663
▁مادی	-3664
▁ماڈل	-3665
▁مرکز	-3666
▁مشرق	-3667
▁مشیر	-3668
▁مشین	-3669
▁مودی	-3670
▁نامی	-3671
▁ناول	-3672
▁ورزی	-3673
▁ویسا	-3674
▁ویسی	-3675
▁پائی	-3676
▁چلتی	-3677
▁ڈاون	-3678
▁کردہ	-3679
▁کردے	-3680
▁کروا	-3681
▁گران	-3682
▁گزری	-3683
▁گماں	-3684
▁گھڑی	-3685
▁یورو	-3686
▁یہیں	-3687
▁اضافی	-3688
▁اقدار	-3689
▁انگیز	-3690
▁ایکشن	-3691
▁بالنگ	-3692
▁بتائے	-3693
▁بدلنے	-3694
▁بصیرت	-3695
▁بولتے	-3696
▁بہبود	-3697
▁تائید	-3698
▁تکنیک	-3699
▁جانیے	-3700
▁جزائر	-3701
▁جیتنے	-3702
▁حقیقی	-3703
▁حمایت	-3704
▁خرابی	-3705
▁خصوصی	-3706
▁دشمنی	-3707
▁دھرنے	-3708
▁زمینی	-3709
▁شہریت	-3710
▁عصبیت	-3711
▁فتووں	-3712
▁فلاحی	-3713
▁فنکار	-3714
▁مانتے	-3715
▁ماننا	-3716
▁متبنہ	-3717
▁مختصر	-3718
▁مضمون	-3719
▁معانی	-3720
▁منانے	-3721
▁منحرف	-3722
▁منیجر	-3723
▁نامزد	-3724
▁نظریں	-3725
▁نکلنا	-3726
▁نکھار	-3727
▁واقعے	-3728
▁ٹھنڈا	-3729
▁پکانا	-3730
▁چالیس	-3731
▁چولہا	-3732
▁چکوال	-3733
▁چہروں	-3734
▁چینلز	-3735
▁ڈائری	-3736
▁ڈرامے	-3737
▁کاررو	-3738
▁کاموں	-3739
▁کانگو	-3740
▁کرونا	-3741
▁کوریا	-3742
▁گرداں	-3743
▁یوایس	-3744
والفقار	-3745
ورداران	-3746
▁ائیوری	-3747
▁اختتام	-3748
▁ازوریس	-3749
▁اعتراف	-3750
▁افسران	-3751
▁الوداع	-3752
▁امارات	-3753
▁انڈونی	-3754
▁انکشاف	-3755
▁بھابھی	-3756
▁بیانیہ	-3757
▁بیانیے	-3758
▁جنگلات	-3759
▁جھومتی	-3760
▁دنیائے	-3761
▁شائقین	-3762
▁شریفوں	-3763
▁قوانین	-3764
▁لانسنگ	-3765
▁متعلقہ	-3766
▁مجموعی	-3767
▁مزدوری	-3768
▁پہاڑوں	-3769
▁چنانچہ	-3770
▁چوہدری	-3771
▁کارامد	-3772
▁کروانے	-3773
▁کرکٹرز	-3774
▁ہزاروں	-3775
▁ائلینڈز	-3776
▁ادائیگی	-3777
▁انفرادی	-3778
▁برطانوی	-3779
▁بندوبست	-3780
▁حکمرانی	-3781
▁سنسناہٹ	-3782
▁سیکورٹی	-3783
▁مدمقابل	-3784
▁معصومیت	-3785
▁ٹورنمنٹ	-3786
▁پٹرولیم	-3787
▁پھیلانے	-3788
▁چھوڑئیے	-3789
▁ہسپانوی	-3790
▁انگریزوں	-3791
▁زیرتعلیم	-3792
▁کاروباری	-3793
▁برخورداران	-3794
رس	-3795
رک	-3796
نب	-3797
ٹل	-3798
ٹم	-3799
پس	-3800
چس	-3801
ابع	-3802
اطب	-3803
اما	-3804
اوت	-3805
بھی	-3806
بیا	-3807
حید	-3808
داز	-3809
رنگ	-3810
طرح	-3811
فتر	-3812
فید	-3813
مات	-3814
مقد	-3815
نٹو	-3816
وتی	-3817
ولر	-3818
ویش	-3819
ٹھی	-3820
کوس	-3821
کھے	-3822
گیر	-3823
ہیر	-3824
یکر	-3825
▁بق	-3826
▁جع	-3827
▁رگ	-3828
▁شل	-3829
▁لک	-3830
▁پگ	-3831
ابطے	-3832
اریہ	-3833
الیں	-3834
اویر	-3835
اہری	-3836
دارس	-3837
دلال	-3838
لیئر	-3839
لیمز	-3840
ماٹر	-3841
نامک	-3842
کھلا	-3843
کیلے	-3844
یوان	-3845
▁ابو	-3846
▁الا	-3847
▁الٹ	-3848
▁انی	-3849
▁تجز	-3850
▁تری	-3851
▁تھک	-3852
▁جاں	-3853
▁جلس	-3854
▁جود	-3855
▁دما	-3856
▁سرح	-3857
▁شاخ	-3858
▁شکن	-3859
▁صنم	-3860
▁فجر	-3861
▁فنش	-3862
▁فہم	-3863
▁قرب	-3864
▁لوں	-3865
▁لیٹ	-3866
▁ماج	-3867
▁مشق	-3868
▁منڈ	-3869
▁میا	-3870
▁نشو	-3871
▁نیب	-3872
▁نیل	-3873
▁ویر	-3874
▁ٹمپ	-3875
▁پوس	-3876
▁پھل	-3877
▁پہر	-3878
▁پہن	-3879
▁پین	-3880
▁چوک	-3881
▁کوس	-3882
▁کھا	-3883
▁ہال	-3884
بردست	-3885
ریٹنگ	-3886
ڈوادی	-3887
▁ارشد	-3888
▁ارمی	-3889
▁استق	-3890
▁الیک	-3891
▁امان	-3892
▁انڈہ	-3893
▁انہی	-3894
▁اورم	-3895
▁ایشن	-3896
▁باکس	-3897
▁بھرا	-3898
▁بھون	-3899
▁تابع	-3900
▁تھام	-3901
▁تیرا	-3902
▁جنتی	-3903
▁جوان	-3904
▁جیتا	-3905
▁حافظ	-3906
▁حامی	-3907
▁حلال	-3908
▁خالق	-3909
▁دفتر	-3910
▁دھوم	-3911
▁دیئے	-3912
▁رشتہ	-3913
▁روٹی	-3914
▁رکھو	-3915
▁زمان	-3916
▁سلیم	-3917
▁سنیل	-3918
▁سیکر	-3919
▁ضمنی	-3920
▁عظمت	-3921
▁علمی	-3922
▁فرقت	-3923
▁فلور	-3924
▁قبضے	-3925
▁لائٹ	-3926
▁لوٹے	-3927
▁لیتی	-3928
▁مرزا	-3929
▁مندی	-3930
▁نصاب	-3931
▁نمون	-3932
▁وسعت	-3933
▁وعدہ	-3934
▁ویزا	-3935
▁پالا	-3936
▁پایا	-3937
▁پریس	-3938
▁پیشہ	-3939
▁چڑھا	-3940
▁چہرے	-3941
▁ڈراپ	-3942
▁کاسٹ	-3943
▁کلاں	-3944
▁کھڑی	-3945
▁کیری	-3946
▁ہرگز	-3947
▁یاسر	-3948
اختیار	-3949
▁اتوار	-3950
▁احباب	-3951
▁اسائش	-3952
▁اسپین	-3953
▁اطراف	-3954
▁اعادہ	-3955
▁اعداد	-3956
▁اوریہ	-3957
▁اونچا	-3958
▁اکھٹا	-3959
▁برسوں	-3960
▁بڑھتے	-3961
▁بیندر	-3962
▁تاخیر	-3963
▁ترکیب	-3964
▁تشویش	-3965
▁تعریف	-3966
▁توحید	-3967
▁تھانے	-3968
▁حیوان	-3969
▁خاتمہ	-3970
▁خستگی	-3971
▁خیریت	-3972
▁درجات	-3973
▁دلاتا	-3974
▁دوستی	-3975
▁دھاڑی	-3976
▁دھاگہ	-3977
▁دہانی	-3978
▁رکھیں	-3979
▁ریڈیو	-3980
▁زلزلی	-3981
▁سسٹمز	-3982
▁سیدھی	-3983
▁شاعری	-3984
▁شہادت	-3985
▁شیڈول	-3986
▁صحافی	-3987
▁ظاہری	-3988
▁لمحات	-3989
▁لڑائی	-3990
▁مارشل	-3991
▁ماسکو	-3992
▁متوجہ	-3993
▁مخاطب	-3994
▁مخلوق	-3995
▁مدارس	-3996
▁مرحلہ	-3997
▁مستقل	-3998
▁مظلوم	-3999
▁مقتول	-4000
▁ملالہ	-4001
▁منسوخ	-4002
▁منظور	-4003
▁نیپرا	-4004
▁ٹماٹر	-4005
▁ٹھہرے	-4006
▁پرانا	-4007
▁پسینہ	-4008
▁پلانٹ	-4009
▁پھرنے	-4010
▁چاہتی	-4011
▁کرارا	-4012
▁کرنسی	-4013
▁کمیشن	-4014
▁کھینچ	-4015
▁گزرتے	-4016
▁یقینی	-4017
▁ازمایش	-4018
▁اسکواڈ	-4019
▁انتقال	-4020
▁اکنامک	-4021
▁تصاویر	-4022
▁زبردست	-4023
▁سائنسی	-4024
▁سونالی	-4025
▁سیاحوں	-4026
▁شخصیات	-4027
▁فارمیٹ	-4028
▁مداحوں	-4029
▁مزاحمت	-4030
▁مستفید	-4031
▁مطالعے	-4032
▁مظاہرہ	-4033
▁معاویہ	-4034
▁معاہدے	-4035
▁مولانا	-4036
▁ٹمپرنگ	-4037
▁پاناما	-4038
▁پیٹرول	-4039
▁چھٹیاں	-4040
▁کشیدگی	-4041
▁کنٹرول	-4042
▁کینیڈا	-4043
▁گنجائش	-4044
▁گھومنے	-4045
▁یکسوئی	-4046
▁استدلال	-4047
▁اٹھائیں	-4048
▁جمہوریہ	-4049
▁منڈوادی	-4050
▁نشوونما	-4051
▁پاسپورٹ	-4052
▁اوپریٹنگ	-4053
▁بلوچستان	-4054
▁فرانسیسی	-4055
▁ٹیکسٹائل	-4056
▁پابندیاں	-4057
▁الطبیعیاتی	-4058
▁دسمبرایجنسی	-4059
خط	-4060
زر	-4061
شپ	-4062
طع	-4063
نک	-4064
گل	-4065
یٹ	-4066
▁ئ	-4067
احق	-4068
ارش	-4069
انڈ	-4070
اکر	-4071
تاح	-4072
جنٹ	-4073
خوا	-4074
درد	-4075
روح	-4076
زار	-4077
زید	-4078
سار	-4079
سطو	-4080
ضاد	-4081
فار	-4082
فیق	-4083
لبہ	-4084
میز	-4085
نصر	-4086
نیا	-4087
وبے	-4088
وجی	-4089
ورے	-4090
ولپ	-4091
پیگ	-4092
کنگ	-4093
گنے	-4094
▁زی	-4095
▁طی	-4096
▁مچ	-4097
▁ٹپ	-4098
▁چپ	-4099
▁ڈپ	-4100
▁ہت	-4101
اسکر	-4102
انیت	-4103
خانے	-4104
دائی	-4105
رحقی	-4106
ردید	-4107
ریقا	-4108
زمین	-4109
شاہد	-4110
شتوں	-4111
لاوہ	-4112
میری	-4113
والے	-4114
وقوف	-4115
ومبر	-4116
ونلڈ	-4117
وٹنگ	-4118
ویسٹ	-4119
ڑیاں	-4120
کواس	-4121
کووچ	-4122
یوسی	-4123
یکٹس	-4124
▁اجا	-4125
▁اکڑ	-4126
▁باس	-4127
▁باپ	-4128
▁بچھ	-4129
▁بہن	-4130
▁بیس	-4131
▁توق	-4132
▁تھم	-4133
▁جزا	-4134
▁جمع	-4135
▁جڑے	-4136
▁جین	-4137
▁حاک	-4138
▁حدی	-4139
▁حسی	-4140
▁خطے	-4141
▁درج	-4142
▁دوں	-4143
▁رحم	-4144
▁سرو	-4145
▁سوا	-4146
▁شیخ	-4147
▁طال	-4148
▁طنز	-4149
▁عدو	-4150
▁فیم	-4151
▁قری	-4152
▁قمر	-4153
▁قید	-4154
▁لہر	-4155
▁ماں	-4156
▁مسخ	-4157
▁منع	-4158
▁مچھ	-4159
▁میز	-4160
▁نجی	-4161
▁نری	-4162
▁نوٹ	-4163
▁نہی	-4164
▁وہم	-4165
▁ویک	-4166
▁ٹری	-4167
▁چیک	-4168
▁ڈبل	-4169
▁کال	-4170
▁کاٹ	-4171
▁کرس	-4172
▁کرچ	-4173
▁کول	-4174
▁کٹو	-4175
▁کہل	-4176
▁گلے	-4177
▁ھیں	-4178
خواست	-4179
وریوں	-4180
ولیات	-4181
ٹرویو	-4182
پیگنڈ	-4183
▁ائیر	-4184
▁ابلا	-4185
▁اجکل	-4186
▁ارہے	-4187
▁اسکا	-4188
▁الجھ	-4189
▁اورخ	-4190
▁اونٹ	-4191
▁باطل	-4192
▁باور	-4193
▁بنیں	-4194
▁بگاڑ	-4195
▁بھیس	-4196
▁بیشت	-4197
▁بیٹی	-4198
▁تشدد	-4199
▁جیتے	-4200
▁حکام	-4201
▁خاصی	-4202
▁خدشہ	-4203
▁درجے	-4204
▁دفعہ	-4205
▁دیدہ	-4206
▁رنگا	-4207
▁رہنم	-4208
▁زوال	-4209
▁سالہ	-4210
▁سردی	-4211
▁سفید	-4212
▁سلوک	-4213
▁سنتے	-4214
▁سننے	-4215
▁سوئس	-4216
▁سوچے	-4217
▁سینی	-4218
▁صحبت	-4219
▁طاری	-4220
▁ظالم	-4221
▁عبور	-4222
▁عربی	-4223
▁عصری	-4224
▁عورت	-4225
▁فتنہ	-4226
▁فرین	-4227
▁فیصد	-4228
▁فیچر	-4229
▁قادر	-4230
▁لاحق	-4231
▁لباس	-4232
▁لمحہ	-4233
▁لڑکی	-4234
▁لکھے	-4235
▁مالک	-4236
▁مانا	-4237
▁مانی	-4238
▁مباح	-4239
▁مروت	-4240
▁مسٹر	-4241
▁مکان	-4242
▁میکس	-4243
▁نامہ	-4244
▁نکاح	-4245
▁نکتہ	-4246
▁نیاز	-4247
▁نیچے	-4248
▁ونڈو	-4249
▁وہیں	-4250
▁ویمن	-4251
▁ٹائی	-4252
▁پاتے	-4253
▁پاور	-4254
▁پبلک	-4255
▁پناہ	-4256
▁پوسٹ	-4257
▁پینے	-4258
▁چندے	-4259
▁چینل	-4260
▁ڈبیا	-4261
▁ڈھنگ	-4262
▁کافر	-4263
▁کرسی	-4264
▁کوان	-4265
▁کھلی	-4266
▁گرام	-4267
▁گورن	-4268
▁ہوشی	-4269
▁یزید	-4270
جنٹائن	-4271
رانداز	-4272
رحقیقت	-4273
▁اخراج	-4274
▁ارسطو	-4275
▁اصرار	-4276
▁الودہ	-4277
▁اولین	-4278
▁اگرچہ	-4279
▁بدلنا	-4280
▁بروئے	-4281
▁بنانی	-4282
▁بڑھتا	-4283
▁بکواس	-4284
▁بھرتی	-4285
▁تائتا	-4286
▁تربیت	-4287
▁تردید	-4288
▁تسلیم	-4289
▁تشہیر	-4290
▁تفصیل	-4291
▁دھارے	-4292
▁رابطہ	-4293
▁رکاوٹ	-4294
▁رہنما	-4295
▁سائیٹ	-4296
▁سٹیٹس	-4297
▁سیاحت	-4298
▁صفائی	-4299
▁عادات	-4300
▁علامت	-4301
▁قوتیں	-4302
▁لطیفہ	-4303
▁لکھتا	-4304
▁لگائی	-4305
▁ماہرہ	-4306
▁متعدی	-4307
▁مجروح	-4308
▁محترم	-4309
▁ملاوٹ	-4310
▁منایا	-4311
▁منتقل	-4312
▁موزوں	-4313
▁نامور	-4314
▁نجانے	-4315
▁نظارہ	-4316
▁نمونہ	-4317
▁نومبر	-4318
▁نکلتا	-4319
▁وسائل	-4320
▁ولیمز	-4321
▁پلئیر	-4322
▁پنکھا	-4323
▁چوتھا	-4324
▁چھوٹا	-4325
▁ڈالتے	-4326
▁ڈرائی	-4327
▁ڈھاکہ	-4328
▁کلنڈر	-4329
▁کوہلی	-4330
▁کویتی	-4331
▁کیمرے	-4332
▁گھٹتی	-4333
▁ہمدرد	-4334
▁ہورہا	-4335
▁یہودی	-4336
▁اردگرد	-4337
▁اسپیشل	-4338
▁اعتدال	-4339
▁افریقا	-4340
▁انسٹال	-4341
▁ایرانی	-4342
▁ایسوسی	-4343
▁بڑھایا	-4344
▁بیداری	-4345
▁بیوقوف	-4346
▁تعلیمی	-4347
▁تعینات	-4348
▁تمہارے	-4349
▁جوکووچ	-4350
▁خامیوں	-4351
▁خریدنے	-4352
▁خطائیں	-4353
▁دیکھئے	-4354
▁روزانہ	-4355
▁سرحدوں	-4356
▁طالبان	-4357
▁فائرنگ	-4358
▁لیڈران	-4359
▁موسموں	-4360
▁نریندر	-4361
▁نفسیات	-4362
▁واقعات	-4363
▁ٹھکانے	-4364
▁پارلیم	-4365
▁پریکٹس	-4366
▁پولینڈ	-4367
▁پیدائش	-4368
▁چاہئیں	-4369
▁چھوڑنے	-4370
▁کردیتا	-4371
▁کشمیری	-4372
▁کمپنیز	-4373
▁کھیلنے	-4374
▁کیریئر	-4375
▁گواسکر	-4376
▁گولیوں	-4377
▁ہنگامہ	-4378
▁ہوجائے	-4379
▁الیکٹرک	-4380
▁اندھیرا	-4381
▁انٹرویو	-4382
▁باکسروں	-4383
▁درحقیقت	-4384
▁درخواست	-4385
▁سمجھایا	-4386
▁سہولیات	-4387
▁معلومات	-4388
▁نفسیاتی	-4389
▁نوکریاں	-4390
▁کارنامہ	-4391
▁ارجنٹائن	-4392
▁راہنمائی	-4393
▁زمبابوبے	-4394
▁کریبیائی	-4395
▁انڈونیشیا	-4396
حق	-4397
رن	-4398
زع	-4399
سئ	-4400
سہ	-4401
سے	-4402
شو	-4403
شک	-4404
وج	-4405
پہ	-4406
ڑھ	-4407
گے	-4408
افل	-4409
انپ	-4410
اوی	-4411
جاز	-4412
دیہ	-4413
راک	-4414
زدل	-4415
زلی	-4416
سنس	-4417
سوں	-4418
سین	-4419
طین	-4420
ظمی	-4421
عتی	-4422
عدی	-4423
عدے	-4424
قود	-4425
لیف	-4426
ملک	-4427
واب	-4428
وبز	-4429
وبل	-4430
وین	-4431
ٹیف	-4432
پنگ	-4433
پہر	-4434
پیں	-4435
چال	-4436
ڑوں	-4437
کام	-4438
گنگ	-4439
ہمی	-4440
یئن	-4441
یاہ	-4442
یبی	-4443
یرا	-4444
یمن	-4445
یوس	-4446
یکل	-4447
▁تد	-4448
▁رز	-4449
▁رع	-4450
▁زد	-4451
▁شش	-4452
▁فس	-4453
▁قط	-4454
▁وخ	-4455
▁ہن	-4456
ائقہ	-4457
ائیر	-4458
احیل	-4459
اخلت	-4460
ادری	-4461
اسطہ	-4462
الاب	-4463
البا	-4464
التی	-4465
امدی	-4466
امین	-4467
اہدہ	-4468
بوضہ	-4469
جمعی	-4470
داری	-4471
رانہ	-4472
ریشن	-4473
سئلہ	-4474
صافی	-4475
قادر	-4476
لانگ	-4477
لیقے	-4478
ناصر	-4479
نبھے	-4480
ندیہ	-4481
نواز	-4482
ولوں	-4483
ونچر	-4484
وٹوک	-4485
کرتی	-4486
کورہ	-4487
ہنوں	-4488
یریا	-4489
▁ابر	-4490
▁اتش	-4491
▁اجن	-4492
▁ادم	-4493
▁ادھ	-4494
▁اری	-4495
▁برف	-4496
▁بسی	-4497
▁بوس	-4498
▁بٹن	-4499
▁بچا	-4500
▁بیج	-4501
▁ترا	-4502
▁جبر	-4503
▁جلا	-4504
▁حلے	-4505
▁خوا	-4506
▁درس	-4507
▁رخی	-4508
▁رست	-4509
▁رضا	-4510
▁زہر	-4511
▁زین	-4512
▁سبس	-4513
▁شرط	-4514
▁ضمن	-4515
▁فاط	-4516
▁فرح	-4517
▁فلی	-4518
▁فیک	-4519
▁قبر	-4520
▁قصہ	-4521
▁قلت	-4522
▁قول	-4523
▁محا	-4524
▁مرچ	-4525
▁موڑ	-4526
▁نفی	-4527
▁نقش	-4528
▁نوں	-4529
▁وحی	-4530
▁وعظ	-4531
▁پکی	-4532
▁چور	-4533
▁چھن	-4534
▁چیڑ	-4535
▁کرگ	-4536
▁کفر	-4537
▁کوم	-4538
▁کچی	-4539
▁کہو	-4540
▁گرج	-4541
▁گلا	-4542
▁گنا	-4543
▁ہٹا	-4544
اکرات	-4545
رمائے	-4546
ستانہ	-4547
عدلیہ	-4548
لائیں	-4549
لطیوں	-4550
واروں	-4551
ونٹتا	-4552
یکسین	-4553
▁ائند	-4554
▁اتار	-4555
▁احیا	-4556
▁ادھا	-4557
▁اسکو	-4558
▁اسکی	-4559
▁انکم	-4560
▁اٹھے	-4561
▁بازو	-4562
▁باقا	-4563
▁بالر	-4564
▁بتوں	-4565
▁بدلے	-4566
▁بزرگ	-4567
▁بساط	-4568
▁بقول	-4569
▁بکرے	-4570
▁بیاہ	-4571
▁تجرب	-4572
▁تدری	-4573
▁تضاد	-4574
▁تلخی	-4575
▁توڑا	-4576
▁جائی	-4577
▁جادو	-4578
▁جالب	-4579
▁جبڑا	-4580
▁جرسی	-4581
▁جسٹس	-4582
▁جلتی	-4583
▁جناح	-4584
▁جنوب	-4585
▁جنوں	-4586
▁جھاگ	-4587
▁حملے	-4588
▁خاصا	-4589
▁خانے	-4590
▁دئیے	-4591
▁دلوں	-4592
▁دیشی	-4593
▁رشتے	-4594
▁روما	-4595
▁سائٹ	-4596
▁سوئے	-4597
▁سوار	-4598
▁شریک	-4599
▁شوبز	-4600
▁شوخی	-4601
▁شکنی	-4602
▁طاہر	-4603
▁فیلڈ	-4604
▁قابو	-4605
▁قسمت	-4606
▁لطیف	-4607
▁لیگز	-4608
▁مراک	-4609
▁مسلہ	-4610
▁ملاح	-4611
▁ملتے	-4612
▁ملنی	-4613
▁مکال	-4614
▁میڈل	-4615
▁ناان	-4616
▁نعرے	-4617
▁نواب	-4618
▁نوبت	-4619
▁نچلے	-4620
▁نیند	-4621
▁وکیل	-4622
▁ٹھہر	-4623
▁پارک	-4624
▁پروا	-4625
▁پگھل	-4626
▁ڈالو	-4627
▁ڈیری	-4628
▁کبڈی	-4629
▁کسان	-4630
▁کشید	-4631
▁کپڑے	-4632
▁کہتا	-4633
▁گاوں	-4634
▁گزرا	-4635
▁گندم	-4636
▁گھبر	-4637
▁ہائی	-4638
▁ہائے	-4639
▁ہولڈ	-4640
ولپنڈی	-4641
ولیائی	-4642
وٹوکول	-4643
▁ادراک	-4644
▁اسباب	-4645
▁اعظمی	-4646
▁اقدام	-4647
▁اقوام	-4648
▁انجام	-4649
▁انڈیل	-4650
▁اوراس	-4651
▁اوروہ	-4652
▁اکیلے	-4653
▁اگاہی	-4654
▁ایجاد	-4655
▁باجوہ	-4656
▁بتائی	-4657
▁برتتا	-4658
▁برتری	-4659
▁بیشتر	-4660
▁تالاب	-4661
▁تباہی	-4662
▁تجزیہ	-4663
▁تمھیں	-4664
▁تناظر	-4665
▁تنزلی	-4666
▁جانیں	-4667
▁جاگنے	-4668
▁جہالت	-4669
▁دستخط	-4670
▁دوپہر	-4671
▁رابطے	-4672
▁راحیل	-4673
▁رسائی	-4674
▁رویوں	-4675
▁رکھئے	-4676
▁سراپا	-4677
▁سفارش	-4678
▁سلامت	-4679
▁سلیقے	-4680
▁سمجھے	-4681
▁سڑکوں	-4682
▁سڑکیں	-4683
▁سینئر	-4684
▁شکایت	-4685
▁شہروں	-4686
▁صوبوں	-4687
▁طریقے	-4688
▁علموں	-4689
▁عندیہ	-4690
▁فاروق	-4691
▁فالٹن	-4692
▁قریشی	-4693
▁قوائد	-4694
▁قومیں	-4695
▁قیامت	-4696
▁لگاتے	-4697
▁لگایا	-4698
▁لہروں	-4699
▁مانتی	-4700
▁مایوس	-4701
▁مجبور	-4702
▁محبوب	-4703
▁مسکرا	-4704
▁معجزہ	-4705
▁معکوس	-4706
▁مفقود	-4707
▁منقطع	-4708
▁نمائش	-4709
▁ویران	-4710
▁ویمنز	-4711
▁پریبن	-4712
▁پڑھنے	-4713
▁پھنسے	-4714
▁چیمبر	-4715
▁کارکن	-4716
▁کانسی	-4717
▁کرانے	-4718
▁کنارے	-4719
▁کےلیے	-4720
▁گرانٹ	-4721
▁گراوٹ	-4722
▁گلوبل	-4723
▁ہوچکا	-4724
▁یادیں	-4725
▁یورپی	-4726
▁احتیاط	-4727
▁اسٹریٹ	-4728
▁اعتراض	-4729
▁الرحمن	-4730
▁انتشار	-4731
▁انتقام	-4732
▁اٹھایا	-4733
▁اچنبھے	-4734
▁ایجنسی	-4735
▁ایسٹرن	-4736
▁بالائی	-4737
▁برخلاف	-4738
▁بھروسے	-4739
▁تمہارا	-4740
▁جولائی	-4741
▁خوفناک	-4742
▁خیالوں	-4743
▁دلجمعی	-4744
▁دکھانا	-4745
▁دکھایا	-4746
▁ریٹائر	-4747
▁سرزمین	-4748
▁شاہکار	-4749
▁شرابور	-4750
▁فلسطین	-4751
▁لائسنس	-4752
▁مداخلت	-4753
▁مددگار	-4754
▁مستعدی	-4755
▁مضامین	-4756
▁مقبوضہ	-4757
▁مہرباں	-4758
▁نکالنا	-4759
▁ویکسین	-4760
▁ٹھکانہ	-4761
▁چھلانگ	-4762
▁کتابیں	-4763
▁کوششیں	-4764
▁کھیلنا	-4765
▁کہلاتا	-4766
▁گاڑیاں	-4767
▁گزاریں	-4768
▁گورننس	-4769
▁ائرلینڈ	-4770
▁ابتدائی	-4771
▁استقبال	-4772
▁اسمانوں	-4773
▁اصلاحات	-4774
▁امدیدگی	-4775
▁اورنواز	-4776
▁ایڈونچر	-4777
▁برطانیہ	-4778
▁بھونچال	-4779
▁تحقیقات	-4780
▁تقریبات	-4781
▁دوستانہ	-4782
▁دکھائیے	-4783
▁دہائیوں	-4784
▁رجحانات	-4785
▁روحانیت	-4786
▁سفرنامہ	-4787
▁سمجھانے	-4788
▁سیاستدا	-4789
▁سیکرٹری	-4790
▁شریانوں	-4791
▁فرمائیں	-4792
▁مسافروں	-4793
▁مشروبات	-4794
▁ملازمین	-4795
▁نظریاتی	-4796
▁پانچواں	-4797
▁گھونٹتا	-4798
▁ہوجائیں	-4799
▁ہوشیاری	-4800
▁یوایساے	-4801
▁اختیارات	-4802
▁اورعدلیہ	-4803
▁ایکسپورٹ	-4804
▁حکمرانوں	-4805
▁دکھلائیں	-4806
▁راولپنڈی	-4807
▁عائدکرتی	-4808
▁مٹھائیاں	-4809
▁ناانصافی	-4810
▁پروٹوکول	-4811
▁پروپیگنڈ	-4812
▁عبدالقادر	-4813
ئز	-4814
سز	-4815
ضب	-4816
ظت	-4817
قد	-4818
لص	-4819
ٹک	-4820
چل	-4821
ڈز	-4822
کف	-4823
یڈ	-4824
▁ں	-4825
ئنگ	-4826
ائس	-4827
ائف	-4828
اسی	-4829
اصر	-4830
اطت	-4831
امن	-4832
انئ	-4833
اوز	-4834
اہٹ	-4835
بند	-4836
جری	-4837
حیح	-4838
خصت	-4839
داد	-4840
ربا	-4841
روک	-4842
ریح	-4843
سمے	-4844
سٹا	-4845
سیح	-4846
شوع	-4847
عکس	-4848
فاق	-4849
قان	-4850
ماع	-4851
مرہ	-4852
مین	-4853
ناس	-4854
ناں	-4855
ندے	-4856
نٹس	-4857
نگی	-4858
نگے	-4859
وفی	-4860
وما	-4861
ومت	-4862
ومل	-4863
ومن	-4864
ونت	-4865
ونس	-4866
ٹین	-4867
ڈھا	-4868
ڑھی	-4869
کتا	-4870
کشن	-4871
کٹی	-4872
کیے	-4873
گون	-4874
یبت	-4875
یبل	-4876
یدا	-4877
یزن	-4878
یشے	-4879
ینو	-4880
ینے	-4881
▁ئے	-4882
▁خل	-4883
▁فق	-4884
▁قا	-4885
▁نن	-4886
▁چس	-4887
ائنٹ	-4888
ائید	-4889
اربہ	-4890
ازنہ	-4891
اشیہ	-4892
افتی	-4893
اللہ	-4894
الیف	-4895
اندھ	-4896
انڈر	-4897
اویے	-4898
اہنا	-4899
تانی	-4900
جاست	-4901
دورہ	-4902
دیہہ	-4903
سمتی	-4904
سٹنٹ	-4905
فارم	-4906
لابی	-4907
لاظت	-4908
لقین	-4909
مقدس	-4910
نسار	-4911
نشاہ	-4912
نورے	-4913
نٹوں	-4914
والہ	-4915
ولبر	-4916
ونوں	-4917
ونکا	-4918
وٹان	-4919
ویلپ	-4920
ٹرشپ	-4921
ٹیلی	-4922
ڈریا	-4923
کروں	-4924
گاری	-4925
ہانت	-4926
یبوں	-4927
یلین	-4928
▁ادب	-4929
▁اشع	-4930
▁اعل	-4931
▁الہ	-4932
▁اکر	-4933
▁بام	-4934
▁بخش	-4935
▁بوٹ	-4936
▁بیو	-4937
▁تعص	-4938
▁جاہ	-4939
▁جبل	-4940
▁جدہ	-4941
▁جنت	-4942
▁حجم	-4943
▁حسب	-4944
▁دری	-4945
▁دمی	-4946
▁دوڑ	-4947
▁دوگ	-4948
▁دھم	-4949
▁دھک	-4950
▁رام	-4951
▁رزق	-4952
▁رسم	-4953
▁رسی	-4954
▁رنج	-4955
▁رین	-4956
▁زپر	-4957
▁سعد	-4958
▁سنت	-4959
▁سنج	-4960
▁سیل	-4961
▁شدد	-4962
▁شرک	-4963
▁شوک	-4964
▁صفح	-4965
▁عاص	-4966
▁عبر	-4967
▁عرو	-4968
▁لاش	-4969
▁لاط	-4970
▁لال	-4971
▁لتا	-4972
▁لگو	-4973
▁لہو	-4974
▁مبہ	-4975
▁مخد	-4976
▁مود	-4977
▁ناں	-4978
▁نبھ	-4979
▁ندی	-4980
▁نہج	-4981
▁نیت	-4982
▁واہ	-4983
▁ٹائ	-4984
▁ٹرک	-4985
▁ٹوئ	-4986
▁ٹوک	-4987
▁پتے	-4988
▁پکڑ	-4989
▁چاک	-4990
▁چیخ	-4991
▁کاط	-4992
▁کتے	-4993
▁کنگ	-4994
▁کوٹ	-4995
▁کپر	-4996
▁کچا	-4997
▁کیں	-4998
▁گلہ	-4999
▁گٹھ	-5000
▁گھس	-5001
▁ہاس	-5002
▁ہلا	-5003
▁ہمہ	-5004
▁یئے	-5005
▁یشر	-5006
ائزرز	-5007
ائونٹ	-5008
ابستر	-5009
امزاج	-5010
انکتا	-5011
انہیں	-5012
تاریخ	-5013
تالیس	-5014
قادری	-5015
لیشیا	-5016
وظہبی	-5017
پایوں	-5018
▁احمق	-5019
▁اختل	-5020
▁اداب	-5021
▁اداس	-5022
▁ادھے	-5023
▁ارہا	-5024
▁اسلم	-5025
▁اندا	-5026
▁انمٹ	-5027
▁اورب	-5028
▁اوسط	-5029
▁اٹھی	-5030
▁اگئے	-5031
▁ایتھ	-5032
▁بانی	-5033
▁بجاے	-5034
▁بحال	-5035
▁بسنت	-5036
▁بندی	-5037
▁بڈھا	-5038
▁بہتا	-5039
▁تئیں	-5040
▁تارڑ	-5041
▁تسمے	-5042
▁تنخو	-5043
▁توبہ	-5044
▁تکلف	-5045
▁تیرہ	-5046
▁تیور	-5047
▁جارج	-5048
▁جاھل	-5049
▁جلوس	-5050
▁جمود	-5051
▁جمیل	-5052
▁خصلت	-5053
▁خضوع	-5054
▁خطیر	-5055
▁خمار	-5056
▁دامن	-5057
▁دھون	-5058
▁راضی	-5059
▁رخصت	-5060
▁رستم	-5061
▁رسمی	-5062
▁رگبی	-5063
▁رہوں	-5064
▁زخرف	-5065
▁زریں	-5066
▁سائے	-5067
▁سبزہ	-5068
▁سماں	-5069
▁سوئپ	-5070
▁سوات	-5071
▁سونم	-5072
▁سکون	-5073
▁سیال	-5074
▁سیلم	-5075
▁سینڈ	-5076
▁شمسی	-5077
▁شوہر	-5078
▁شگون	-5079
▁شیئر	-5080
▁شیشے	-5081
▁صدور	-5082
▁طبقہ	-5083
▁طبیب	-5084
▁طعام	-5085
▁طعنہ	-5086
▁عشرے	-5087
▁عطاف	-5088
▁عظمی	-5089
▁عملا	-5090
▁فلمی	-5091
▁فورم	-5092
▁فہمی	-5093
▁قائل	-5094
▁قاری	-5095
▁قاہد	-5096
▁لینی	-5097
▁لیکر	-5098
▁مارک	-5099
▁مانگ	-5100
▁مانے	-5101
▁مبنی	-5102
▁متلا	-5103
▁مجرم	-5104
▁مخلص	-5105
▁مرقع	-5106
▁مسکر	-5107
▁مسیح	-5108
▁مضرا	-5109
▁مظہر	-5110
▁منظم	-5111
▁مومل	-5112
▁موٹو	-5113
▁مینہ	-5114
▁نائب	-5115
▁نازک	-5116
▁نسبت	-5117
▁نظیر	-5118
▁نعمت	-5119
▁نقاب	-5120
▁نمبر	-5121
▁نواک	-5122
▁نوید	-5123
▁نچوڑ	-5124
▁نگاہ	-5125
▁وادر	-5126
▁والد	-5127
▁والہ	-5128
▁وعدے	-5129
▁ٹانگ	-5130
▁ٹریک	-5131
▁ٹیبل	-5132
▁پرچم	-5133
▁پوجا	-5134
▁پڑھا	-5135
▁پیار	-5136
▁چلیں	-5137
▁چوری	-5138
▁ڈالا	-5139
▁ڈالی	-5140
▁ڈالے	-5141
▁ڈوبا	-5142
▁ڈکٹی	-5143
▁کالی	-5144
▁کامط	-5145
▁کدھر	-5146
▁کرام	-5147
▁کلین	-5148
▁کوزے	-5149
▁کونس	-5150
▁کونہ	-5151
▁کوڑا	-5152
▁کوہر	-5153
▁کھنچ	-5154
▁کہتی	-5155
▁کہیے	-5156
▁گراں	-5157
▁گرنے	-5158
▁گرہن	-5159
▁گریز	-5160
▁گہری	-5161
▁ھےکہ	-5162
▁ہارن	-5163
▁ہٹلر	-5164
ائیداد	-5165
ارہویں	-5166
وتاکیے	-5167
▁ائیرش	-5168
▁اجائے	-5169
▁ادوار	-5170
▁اسلحہ	-5171
▁اسودہ	-5172
▁اطلاق	-5173
▁اعجاز	-5174
▁افتاب	-5175
▁الدین	-5176
▁المیہ	-5177
▁المیے	-5178
▁انجری	-5179
▁اپشنز	-5180
▁اگانے	-5181
▁اینڈر	-5182
▁ایونٹ	-5183
▁باندھ	-5184
▁بجھتی	-5185
▁برائے	-5186
▁برعکس	-5187
▁بوئنگ	-5188
▁بیرون	-5189
▁بیٹری	-5190
▁بیٹھو	-5191
▁تجاوز	-5192
▁تجدید	-5193
▁تحسین	-5194
▁تلقین	-5195
▁تماشا	-5196
▁توازن	-5197
▁توقیر	-5198
▁تکرار	-5199
▁تکلیف	-5200
▁تکمیل	-5201
▁تھائی	-5202
▁تھانا	-5203
▁جرائم	-5204
▁جرنیل	-5205
▁جہنوں	-5206
▁حاشیہ	-5207
▁خدمات	-5208
▁خواہی	-5209
▁داڑھی	-5210
▁درانی	-5211
▁دشوار	-5212
▁دوائی	-5213
▁رائیڈ	-5214
▁راتوں	-5215
▁روپیہ	-5216
▁ریفری	-5217
▁زاویے	-5218
▁زلزلہ	-5219
▁ستائش	-5220
▁ستمبر	-5221
▁سربین	-5222
▁سرخرو	-5223
▁سلطان	-5224
▁سنگین	-5225
▁سوچیں	-5226
▁سہولت	-5227
▁سینما	-5228
▁سیکٹر	-5229
▁شبانہ	-5230
▁شعوری	-5231
▁شناخت	-5232
▁صحیفہ	-5233
▁صنعتی	-5234
▁فلسفی	-5235
▁فیملی	-5236
▁قبروں	-5237
▁قوتوں	-5238
▁لاٹھی	-5239
▁لٹیرے	-5240
▁لیاری	-5241
▁مابین	-5242
▁ماجرا	-5243
▁مصیبت	-5244
▁معتکف	-5245
▁معرکہ	-5246
▁منافع	-5247
▁منعقد	-5248
▁مہینے	-5249
▁نجاست	-5250
▁نرخوں	-5251
▁نرسری	-5252
▁نوازی	-5253
▁نوکری	-5254
▁نکلنے	-5255
▁واقعی	-5256
▁وساطت	-5257
▁وقوفی	-5258
▁وولبر	-5259
▁وویمن	-5260
▁ٹرانس	-5261
▁ٹپکتا	-5262
▁پچھلی	-5263
▁پڑھتا	-5264
▁پھینٹ	-5265
▁چاھیے	-5266
▁چلانے	-5267
▁ڈرامہ	-5268
▁ڈونلڈ	-5269
▁ڈویلپ	-5270
▁ڈھونڈ	-5271
▁کامرس	-5272
▁کدورت	-5273
▁کرائی	-5274
▁کررہا	-5275
▁کرچکا	-5276
▁کوئٹہ	-5277
▁کھلنے	-5278
▁کیلیے	-5279
▁گزارا	-5280
▁گزارو	-5281
▁گڈریا	-5282
▁گھبرا	-5283
▁گھنٹہ	-5284
▁گیانا	-5285
▁گیسیں	-5286
▁ہمراہ	-5287
▁ہیجان	-5288
▁یافتہ	-5289
▁یونان	-5290
الکلامی	-5291
تاریخیں	-5292
▁ابھرتی	-5293
▁اتارنے	-5294
▁اسسٹنٹ	-5295
▁اسٹائل	-5296
▁اعصابی	-5297
▁الطارق	-5298
▁امسئلہ	-5299
▁اندیشہ	-5300
▁اٹھاتی	-5301
▁بلاگنگ	-5302
▁بھنورے	-5303
▁بھوٹان	-5304
▁بیرونی	-5305
▁بینکوں	-5306
▁تحقیقی	-5307
▁تربیتی	-5308
▁تفصیلی	-5309
▁جاہلیت	-5310
▁جوانوں	-5311
▁حاکمیت	-5312
▁خامیاں	-5313
▁خوبیوں	-5314
▁خوشونت	-5315
▁دنیاوی	-5316
▁دکھائے	-5317
▁دیکھتی	-5318
▁رائزرز	-5319
▁ریاستی	-5320
▁رینکنگ	-5321
▁ریگولر	-5322
▁ریگولی	-5323
▁سراہنا	-5324
▁سرگرمی	-5325
▁سماٹرا	-5326
▁سپلائی	-5327
▁سےمقدس	-5328
▁شکستوں	-5329
▁شہریار	-5330
▁شہنشاہ	-5331
▁شیطانی	-5332
▁صاحبان	-5333
▁صوبائی	-5334
▁طلاقیں	-5335
▁عدالتی	-5336
▁فراہمی	-5337
▁لاطینی	-5338
▁ماہتاب	-5339
▁مجبوری	-5340
▁مستنصر	-5341
▁مضبوطی	-5342
▁معززین	-5343
▁مفادات	-5344
▁مقدمات	-5345
▁ملنسار	-5346
▁منڈیوں	-5347
▁موازنہ	-5348
▁نادانی	-5349
▁نمایاں	-5350
▁نورانی	-5351
▁وارمنگ	-5352
▁ٹورنٹو	-5353
▁پرانوں	-5354
▁پلئیرز	-5355
▁پہنانے	-5356
▁پیمانے	-5357
▁پیچیدہ	-5358
▁چھلاوہ	-5359
▁ڈےویسٹ	-5360
▁کانپنے	-5361
▁کلائنٹ	-5362
▁کمانڈر	-5363
▁کوالیف	-5364
▁کپتانی	-5365
▁کھانوں	-5366
▁گرمیاں	-5367
▁گزارتا	-5368
▁ہانکتا	-5369
▁ہونٹوں	-5370
▁ابوظہبی	-5371
▁احساسات	-5372
▁اعلانیہ	-5373
▁البدیہہ	-5374
▁امکانات	-5375
▁انقلابی	-5376
▁اورکوئی	-5377
▁اکائونٹ	-5378
▁بازاروں	-5379
▁باقاعدہ	-5380
▁تکنیکوں	-5381
▁تیاریوں	-5382
▁جائیداد	-5383
▁رہنمائی	-5384
▁سکیورٹی	-5385
▁شرمندگی	-5386
▁ضروریات	-5387
▁طلسماتی	-5388
▁عدالتیں	-5389
▁فاتحانہ	-5390
▁مہمانوں	-5391
▁پارٹیاں	-5392
▁پروازوں	-5393
▁پھیلایا	-5394
▁پہنچایا	-5395
▁چوپایوں	-5396
▁ڈرامائی	-5397
▁کاطریقہ	-5398
▁کنندگان	-5399
▁کھلکھلا	-5400
▁بےاختیار	-5401
▁سراپاخیر	-5402
▁سیاستدان	-5403
▁ملاقاتیں	-5404
▁میرابستر	-5405
▁پالیسیوں	-5406
▁ڈویلپمنٹ	-5407
▁ڈکٹیٹرشپ	-5408
▁کوہرادیا	-5409
▁امیدواروں	-5410
▁بیٹسمینوں	-5411
▁عطافرمائے	-5412
▁نےپاکستان	-5413
▁ہمارامزاج	-5414
▁اسٹریلیشیا	-5415
▁اورتاریخیں	-5416
▁سمجھوتاکیے	-5417
▁پاکستانیوں	-5418
▁قادرالکلامی	-5419
▁سیریزپاکستان	-5420
ئس	-5421
حد	-5422
دم	-5423
زش	-5424
سڈ	-5425
شم	-5426
عم	-5427
چن	-5428
ڑو	-5429
کن	-5430
گٹ	-5431
ھب	-5432
ےا	-5433
ائط	-5434
ابی	-5435
اتج	-5436
اتع	-5437
ادھ	-5438
ارب	-5439
ازی	-5440
ازے	-5441
اقب	-5442
الط	-5443
انٹ	-5444
اگت	-5445
بری	-5446
جرت	-5447
خیص	-5448
درن	-5449
دیق	-5450
زاج	-5451
زیر	-5452
سکے	-5453
سیہ	-5454
شنگ	-5455
شیخ	-5456
صرہ	-5457
ضیہ	-5458
طنی	-5459
عال	-5460
عظم	-5461
قیہ	-5462
لاج	-5463
لیل	-5464
مرد	-5465
میع	-5466
ناٹ	-5467
نون	-5468
نڈے	-5469
واگ	-5470
وبہ	-5471
ورو	-5472
وشو	-5473
ونے	-5474
ٹھے	-5475
پاٹ	-5476
ڈرر	-5477
ڈین	-5478
ڑلے	-5479
کوں	-5480
گاہ	-5481
گرا	-5482
ھیں	-5483
ہین	-5484
یئے	-5485
یزر	-5486
یسے	-5487
یکو	-5488
یکی	-5489
▁خم	-5490
▁دپ	-5491
▁طر	-5492
▁لس	-5493
▁مم	-5494
▁ود	-5495
▁وظ	-5496
▁گج	-5497
▁ھم	-5498
ائنگ	-5499
اتھن	-5500
اجرم	-5501
ارگٹ	-5502
ازیل	-5503
اسیس	-5504
البہ	-5505
الیب	-5506
املہ	-5507
امید	-5508
انٹی	-5509
اکین	-5510
اگئی	-5511
اہمت	-5512
اہیں	-5513
بیلی	-5514
تبین	-5515
ترکہ	-5516
تیرہ	-5517
جاجی	-5518
جانب	-5519
حیات	-5520
داشت	-5521
دریا	-5522
رافت	-5523
رینہ	-5524
زادی	-5525
شہید	-5526
قاضی	-5527
قریب	-5528
لایا	-5529
لیاں	-5530
ماری	-5531
وائی	-5532
وبکر	-5533
ٹروک	-5534
کاسٹ	-5535
کوئز	-5536
کیشن	-5537
گریس	-5538
گوئے	-5539
یانہ	-5540
یموں	-5541
یندر	-5542
▁اشد	-5543
▁اطف	-5544
▁انف	-5545
▁اپن	-5546
▁ایچ	-5547
▁باش	-5548
▁باض	-5549
▁بلی	-5550
▁بکھ	-5551
▁تان	-5552
▁توف	-5553
▁جلو	-5554
▁جگر	-5555
▁جہد	-5556
▁حیا	-5557
▁خلو	-5558
▁خوں	-5559
▁دشم	-5560
▁دڑو	-5561
▁رقص	-5562
▁رکن	-5563
▁زخم	-5564
▁زرم	-5565
▁زیب	-5566
▁ساح	-5567
▁ساس	-5568
▁سان	-5569
▁سود	-5570
▁سوٹ	-5571
▁سچی	-5572
▁سچے	-5573
▁سےف	-5574
▁فنی	-5575
▁فوس	-5576
▁لاد	-5577
▁لتے	-5578
▁لخت	-5579
▁ماخ	-5580
▁مشن	-5581
▁مشک	-5582
▁مطل	-5583
▁مفت	-5584
▁ملو	-5585
▁میس	-5586
▁میک	-5587
▁نخو	-5588
▁واز	-5589
▁وکٹ	-5590
▁ٹاس	-5591
▁پاش	-5592
▁پرت	-5593
▁پست	-5594
▁پشت	-5595
▁پنا	-5596
▁پٹو	-5597
▁پٹھ	-5598
▁پڑو	-5599
▁چمن	-5600
▁چوٹ	-5601
▁چیٹ	-5602
▁ڈسپ	-5603
▁ڈیم	-5604
▁کاا	-5605
▁کتب	-5606
▁کرت	-5607
▁کمل	-5608
▁کنی	-5609
▁کود	-5610
▁کہی	-5611
▁گال	-5612
▁گجر	-5613
▁گدھ	-5614
▁گنے	-5615
▁گون	-5616
▁گیر	-5617
▁گیل	-5618
▁ہرن	-5619
▁ہیڈ	-5620
▁یسے	-5621
▁یمن	-5622
▁یوم	-5623
ئرنسی	-5624
ائشیا	-5625
اتعلق	-5626
اسکتا	-5627
اظہار	-5628
افراد	-5629
افزوں	-5630
انگیر	-5631
انیات	-5632
بودار	-5633
ریباں	-5634
ریسنگ	-5635
شواہد	-5636
قافتی	-5637
قسمتی	-5638
مبروں	-5639
وامیہ	-5640
ومدار	-5641
وینٹس	-5642
پرستی	-5643
▁ائیے	-5644
▁اجتہ	-5645
▁اخرت	-5646
▁ارسی	-5647
▁اسٹر	-5648
▁اسکر	-5649
▁اصلا	-5650
▁اطلا	-5651
▁الات	-5652
▁امام	-5653
▁اماں	-5654
▁انتھ	-5655
▁انشا	-5656
▁اٹلی	-5657
▁اکشر	-5658
▁اگلی	-5659
▁ایپل	-5660
▁بابر	-5661
▁بارا	-5662
▁بجھے	-5663
▁برہم	-5664
▁بریک	-5665
▁بقیہ	-5666
▁بندہ	-5667
▁بکرا	-5668
▁بھرو	-5669
▁بھوک	-5670
▁بیٹا	-5671
▁بیکس	-5672
▁تاجر	-5673
▁تسلط	-5674
▁تعصب	-5675
▁تمیم	-5676
▁تنہا	-5677
▁تودے	-5678
▁تکیہ	-5679
▁جاہل	-5680
▁جتنے	-5681
▁جرات	-5682
▁جہان	-5683
▁جیتی	-5684
▁حاضر	-5685
▁حامد	-5686
▁دادا	-5687
▁دعوے	-5688
▁دھڑے	-5689
▁دیہی	-5690
▁رائج	-5691
▁رانڈ	-5692
▁راوی	-5693
▁رحمی	-5694
▁رقوم	-5695
▁روئے	-5696
▁روان	-5697
▁روتے	-5698
▁ریشہ	-5699
▁زاہد	-5700
▁سافٹ	-5701
▁ستون	-5702
▁سستی	-5703
▁سستے	-5704
▁سطحی	-5705
▁سعید	-5706
▁سمیع	-5707
▁سمیٹ	-5708
▁سنگم	-5709
▁سٹاک	-5710
▁سہیل	-5711
▁سینے	-5712
▁شعاع	-5713
▁شوگر	-5714
▁شکوے	-5715
▁ظہبی	-5716
▁عاصم	-5717
▁عباس	-5718
▁عبرت	-5719
▁علوم	-5720
▁علیم	-5721
▁فائز	-5722
▁فاسٹ	-5723
▁فلیٹ	-5724
▁فورس	-5725
▁فکسڈ	-5726
▁فیصل	-5727
▁فیول	-5728
▁قتال	-5729
▁لائق	-5730
▁لالہ	-5731
▁لالی	-5732
▁لاگت	-5733
▁لمبا	-5734
▁لکھی	-5735
▁لگنے	-5736
▁ماسک	-5737
▁مالے	-5738
▁ماچس	-5739
▁مایہ	-5740
▁مردہ	-5741
▁مشکو	-5742
▁معمہ	-5743
▁معنی	-5744
▁مفرو	-5745
▁ملنا	-5746
▁موئن	-5747
▁میلہ	-5748
▁مینڈ	-5749
▁میٹر	-5750
▁ناتج	-5751
▁نقشہ	-5752
▁نکمے	-5753
▁وارد	-5754
▁واقف	-5755
▁ورکر	-5756
▁وزرا	-5757
▁وسٹا	-5758
▁وصال	-5759
▁ووشو	-5760
▁وڈیو	-5761
▁ویئر	-5762
▁ٹوٹے	-5763
▁ٹھاٹ	-5764
▁پالی	-5765
▁پرست	-5766
▁پرچی	-5767
▁پرکھ	-5768
▁پستہ	-5769
▁پستی	-5770
▁پلاو	-5771
▁پلڑا	-5772
▁پڑاو	-5773
▁پڑتی	-5774
▁پہنا	-5775
▁پہنو	-5776
▁پیرو	-5777
▁چادر	-5778
▁چھپی	-5779
▁چھپے	-5780
▁چیمہ	-5781
▁ڈھال	-5782
▁ڈھیر	-5783
▁ڈیتھ	-5784
▁کانگ	-5785
▁کنڈی	-5786
▁کنگن	-5787
▁کوئے	-5788
▁کوکا	-5789
▁کٹوا	-5790
▁کہوں	-5791
▁کیشن	-5792
▁کیلے	-5793
▁گانا	-5794
▁گاہے	-5795
▁گلاب	-5796
▁گلشن	-5797
▁گولز	-5798
▁گھری	-5799
▁گھنا	-5800
▁ہانگ	-5801
▁ہجرت	-5802
▁یوسف	-5803
▁یونٹ	-5804
▁یہان	-5805
ائیکنگ	-5806
الطبیع	-5807
دریافت	-5808
مقابلہ	-5809
مقابلے	-5810
▁ابتدا	-5811
▁ابستر	-5812
▁اتفاق	-5813
▁اجاتے	-5814
▁ادھار	-5815
▁ارہوں	-5816
▁اسماں	-5817
▁اسپاٹ	-5818
▁اسکول	-5819
▁اشارہ	-5820
▁اصولا	-5821
▁اصولی	-5822
▁الشیخ	-5823
▁الناس	-5824
▁اوگرا	-5825
▁اٹلان	-5826
▁اٹھتا	-5827
▁اکٹھے	-5828
▁ایلپس	-5829
▁ایپلی	-5830
▁بتانے	-5831
▁بحیرہ	-5832
▁بخوبی	-5833
▁بصورت	-5834
▁بندھے	-5835
▁بھینٹ	-5836
▁بھیگے	-5837
▁بہادر	-5838
▁بیدار	-5839
▁بیزار	-5840
▁بیلار	-5841
▁بیمار	-5842
▁بیٹھی	-5843
▁بیچنے	-5844
▁تاسیس	-5845
▁تبصرہ	-5846
▁تشخیص	-5847
▁تصحیح	-5848
▁تصدیق	-5849
▁تقاضے	-5850
▁توہین	-5851
▁تھوڑے	-5852
▁تیسرا	-5853
▁جاسکے	-5854
▁جاننا	-5855
▁حاضری	-5856
▁خلاکو	-5857
▁درستی	-5858
▁دفاتر	-5859
▁دلائل	-5860
▁دوبئی	-5861
▁دپیکا	-5862
▁دھوکا	-5863
▁دھڑلے	-5864
▁ردعمل	-5865
▁رومان	-5866
▁روکتے	-5867
▁روکنا	-5868
▁روکنے	-5869
▁زاویہ	-5870
▁زبانی	-5871
▁زیربح	-5872
▁سفارت	-5873
▁سمونے	-5874
▁سنسنی	-5875
▁سوکھے	-5876
▁سٹروک	-5877
▁سچائی	-5878
▁سہواگ	-5879
▁سیدھے	-5880
▁سینیٹ	-5881
▁سیٹھی	-5882
▁شاہین	-5883
▁شرائط	-5884
▁طبقات	-5885
▁طبیعی	-5886
▁عجوبہ	-5887
▁عزیمت	-5888
▁علماے	-5889
▁عمومی	-5890
▁عناصر	-5891
▁فیڈرر	-5892
▁قانوں	-5893
▁لائٹس	-5894
▁لمحوں	-5895
▁لگاتی	-5896
▁مانند	-5897
▁ماننے	-5898
▁مراکز	-5899
▁مستحق	-5900
▁مسلمہ	-5901
▁مسنون	-5902
▁مشروب	-5903
▁مقررہ	-5904
▁مناتے	-5905
▁منقسم	-5906
▁مولوی	-5907
▁مہارا	-5908
▁مہینہ	-5909
▁میامی	-5910
▁میٹرک	-5911
▁نااہل	-5912
▁ندامت	-5913
▁نرالا	-5914
▁نمٹتے	-5915
▁نکلتے	-5916
▁نیلام	-5917
▁واشنگ	-5918
▁وتیرہ	-5919
▁وخشوع	-5920
▁وصولی	-5921
▁ٹارگٹ	-5922
▁ٹوئٹر	-5923
▁ٹورڈی	-5924
▁ٹھنڈک	-5925
▁پائیں	-5926
▁پراپر	-5927
▁پراچہ	-5928
▁پرسان	-5929
▁پریشر	-5930
▁پریمی	-5931
▁پلیئر	-5932
▁پڑھنا	-5933
▁پکانے	-5934
▁پیمان	-5935
▁چلانا	-5936
▁چوائس	-5937
▁چکھتے	-5938
▁ڈالرز	-5939
▁ڈھانپ	-5940
▁کاروں	-5941
▁کاملہ	-5942
▁کرائے	-5943
▁کردیے	-5944
▁کشیدہ	-5945
▁کھاتا	-5946
▁کھلنا	-5947
▁کھولا	-5948
▁کیمیا	-5949
▁کےلئے	-5950
▁گرانے	-5951
▁گرگیا	-5952
▁گمانی	-5953
▁گمراہ	-5954
▁گورنر	-5955
▁گٹھیا	-5956
▁گھروں	-5957
▁ہنستے	-5958
▁ہنگری	-5959
▁ہوائی	-5960
▁ہواور	-5961
▁ہواہے	-5962
▁ہوچکی	-5963
▁ہیروز	-5964
▁یادوں	-5965
▁ابوبکر	-5966
▁ازمائے	-5967
▁ازمانا	-5968
▁اسالیب	-5969
▁اشاریہ	-5970
▁اشیانہ	-5971
▁الوطنی	-5972
▁امیتاب	-5973
▁اورایک	-5974
▁اورکیا	-5975
▁اٹھائے	-5976
▁اٹھاتے	-5977
▁اٹھانے	-5978
▁بحرینی	-5979
▁بخارات	-5980
▁بڑاجرم	-5981
▁بگولوں	-5982
▁بھرپور	-5983
▁بیٹھتے	-5984
▁تاجروں	-5985
▁تدریسی	-5986
▁تربیلا	-5987
▁ترتیبی	-5988
▁تمھارے	-5989
▁تنخواہ	-5990
▁تنہائی	-5991
▁جارجیا	-5992
▁جسمانی	-5993
▁جیساکہ	-5994
▁حیرانی	-5995
▁خالصتا	-5996
▁خانپور	-5997
▁خریدنا	-5998
▁دارانہ	-5999
▁دروازے	-6000
▁دشواری	-6001
▁روبوٹس	-6002
▁زلزلوں	-6003
▁زیادتی	-6004
▁سلیمان	-6005
▁سمجھیں	-6006
▁سنائیں	-6007
▁سویلین	-6008
▁شائستہ	-6009
▁ظالموں	-6010
▁قربانی	-6011
▁لاتعلق	-6012
▁لگائیں	-6013
▁لگتاہے	-6014
▁مانیٹر	-6015
▁مبادلہ	-6016
▁متقاضی	-6017
▁متوازن	-6018
▁مختاری	-6019
▁مشترکہ	-6020
▁مطمئین	-6021
▁مٹھائی	-6022
▁مکالمہ	-6023
▁مہربان	-6024
▁میزبان	-6025
▁ناردرن	-6026
▁ناکافی	-6027
▁نخواہی	-6028
▁نظاروں	-6029
▁نمکیات	-6030
▁واریاں	-6031
▁ٹکراتی	-6032
▁پریٹنگ	-6033
▁پنجابی	-6034
▁پٹواری	-6035
▁پہچانا	-6036
▁چنبیلی	-6037
▁چڑھائے	-6038
▁چھانٹی	-6039
▁چھوڑنا	-6040
▁چھوڑوں	-6041
▁ڈپریشن	-6042
▁کاتبین	-6043
▁کاربند	-6044
▁کرواتا	-6045
▁کروشیا	-6046
▁کھاگئی	-6047
▁کیجانب	-6048
▁گارنٹی	-6049
▁گجراتی	-6050
▁گریبان	-6051
▁ہالینڈ	-6052
▁ہندسوں	-6053
▁ہوجانے	-6054
▁یادگار	-6055
▁احتجاجی	-6056
▁احتسابی	-6057
▁احسانات	-6058
▁اداکاری	-6059
▁ارزوئیں	-6060
▁افواہیں	-6061
▁القادری	-6062
▁اڑتالیس	-6063
▁اینڈرسن	-6064
▁باضابطہ	-6065
▁بمقابلہ	-6066
▁بنوامیہ	-6067
▁جہانگیر	-6068
▁حکومتوں	-6069
▁حکومتیں	-6070
▁خریداری	-6071
▁خواہشوں	-6072
▁ریگستان	-6073
▁سرپرستی	-6074
▁سمجھدار	-6075
▁سےفائدہ	-6076
▁عبداللہ	-6077
▁عدالتوں	-6078
▁فرمائیے	-6079
▁مارکوئز	-6080
▁مسکراہٹ	-6081
▁مصیبتوں	-6082
▁معاشروں	-6083
▁ملائشیا	-6084
▁مواقعوں	-6085
▁موضوعات	-6086
▁میراتھن	-6087
▁میکسویل	-6088
▁ناتجربہ	-6089
▁ناگہانی	-6090
▁پروازیں	-6091
▁پوڈکاسٹ	-6092
▁پیچیدگی	-6093
▁چیمپیئن	-6094
▁ڈرائیور	-6095
▁کااظہار	-6096
▁کانگریس	-6097
▁کینیڈین	-6098
▁گوئرنسی	-6099
▁یادداشت	-6100
▁یووینٹس	-6101
▁انتظامات	-6102
▁اورشواہد	-6103
▁ایئرپورٹ	-6104
▁خوشبودار	-6105
▁دارومدار	-6106
▁روزافزوں	-6107
▁ریفریجری	-6108
▁زرمبادلہ	-6109
▁سرگرمیاں	-6110
▁فلسفیانہ	-6111
▁مقصدحیات	-6112
▁نظرانداز	-6113
▁وزیراعلی	-6114
▁کارروائی	-6115
▁کامطالبہ	-6116
▁کردیاگیا	-6117
▁گیارہویں	-6118
▁ہسپتالوں	-6119
▁یوروگوئے	-6120
▁اوردریافت	-6121
▁خیزمقابلے	-6122
▁صنعتکاروں	-6123
▁منگولیائی	-6124
▁پشاورشہید	-6125
▁کوالیفائی	-6126
▁کارروائیاں	-6127
بک	-6128
تب	-6129
جل	-6130
حے	-6131
دع	-6132
زت	-6133
زح	-6134
طخ	-6135
طق	-6136
ظہ	-6137
عش	-6138
عل	-6139
قب	-6140
لن	-6141
نل	-6142
وپ	-6143
گت	-6144
گس	-6145
اتم	-6146
ادق	-6147
ارٹ	-6148
اسا	-6149
اسم	-6150
اقے	-6151
الر	-6152
امے	-6153
اٹا	-6154
اکت	-6155
اگو	-6156
بیہ	-6157
جوں	-6158
جھل	-6159
جھے	-6160
حدہ	-6161
حسن	-6162
خری	-6163
دیا	-6164
راق	-6165
رام	-6166
رشل	-6167
زاز	-6168
ساز	-6169
سال	-6170
سبت	-6171
سون	-6172
سٹر	-6173
سٹن	-6174
شید	-6175
عقل	-6176
عما	-6177
عور	-6178
فاف	-6179
فوج	-6180
فور	-6181
قوں	-6182
لاد	-6183
لتم	-6184
میم	-6185
ناز	-6186
نری	-6187
نٹے	-6188
نگا	-6189
وبص	-6190
وجہ	-6191
ونز	-6192
ٹرف	-6193
ٹوٹ	-6194
پول	-6195
پھر	-6196
چلا	-6197
چڑا	-6198
چیت	-6199
چیز	-6200
ڈرن	-6201
ڑھے	-6202
کات	-6203
گال	-6204
گرہ	-6205
گوا	-6206
گین	-6207
ہام	-6208
ہزا	-6209
ہنہ	-6210
یتر	-6211
یری	-6212
▁بظ	-6213
▁دت	-6214
▁رت	-6215
▁رن	-6216
▁رٹ	-6217
▁فا	-6218
▁مڑ	-6219
▁نل	-6220
▁چم	-6221
▁کج	-6222
▁کع	-6223
▁کک	-6224
▁گڈ	-6225
ائٹی	-6226
ائڈل	-6227
اباد	-6228
ادیت	-6229
ارڈز	-6230
ارکی	-6231
ازکم	-6232
افعت	-6233
افیت	-6234
التو	-6235
الرح	-6236
الطہ	-6237
الوں	-6238
انچے	-6239
اہرے	-6240
بائل	-6241
بالا	-6242
باکو	-6243
تاوا	-6244
خیرہ	-6245
درسہ	-6246
رونی	-6247
رگاہ	-6248
ریفک	-6249
زمان	-6250
سکری	-6251
سیمی	-6252
شاسا	-6253
شکست	-6254
طہیر	-6255
طیاط	-6256
ظرین	-6257
عیات	-6258
فتوں	-6259
فکیٹ	-6260
قانو	-6261
قیدے	-6262
قیفی	-6263
لائن	-6264
لوان	-6265
لیان	-6266
مانت	-6267
مدات	-6268
ملیں	-6269
میرے	-6270
ناٹی	-6271
نتیں	-6272
ندلا	-6273
ندوں	-6274
نویت	-6275
نٹری	-6276
نڈال	-6277
نکنے	-6278
وسیم	-6279
وشکا	-6280
ونٹی	-6281
ٹروے	-6282
ٹمور	-6283
پائر	-6284
پورا	-6285
چسٹر	-6286
کڑوں	-6287
کیسے	-6288
گاوں	-6289
گریٹ	-6290
ھبچن	-6291
ھنٹے	-6292
ھیان	-6293
ہوتی	-6294
ہیتے	-6295
یزون	-6296
یشکر	-6297
ینڈل	-6298
یکرز	-6299
▁ائل	-6300
▁ائن	-6301
▁ارض	-6302
▁افر	-6303
▁الت	-6304
▁الل	-6305
▁اوٹ	-6306
▁اٹل	-6307
▁اپل	-6308
▁اڑے	-6309
▁اید	-6310
▁باگ	-6311
▁برج	-6312
▁برش	-6313
▁برص	-6314
▁برے	-6315
▁بطخ	-6316
▁بنت	-6317
▁تلخ	-6318
▁تیم	-6319
▁جدت	-6320
▁جسک	-6321
▁جوس	-6322
▁جیو	-6323
▁حرف	-6324
▁حیف	-6325
▁حیی	-6326
▁خرم	-6327
▁خلا	-6328
▁خلش	-6329
▁دہل	-6330
▁ربا	-6331
▁رعب	-6332
▁رول	-6333
▁رہن	-6334
▁ریز	-6335
▁زائ	-6336
▁زند	-6337
▁زید	-6338
▁سرم	-6339
▁سست	-6340
▁سلا	-6341
▁سمج	-6342
▁سوپ	-6343
▁سکو	-6344
▁سیم	-6345
▁شاد	-6346
▁شاپ	-6347
▁شعر	-6348
▁شہد	-6349
▁صدف	-6350
▁ضوع	-6351
▁طبع	-6352
▁عبا	-6353
▁عدل	-6354
▁عیس	-6355
▁فاص	-6356
▁فاک	-6357
▁فصل	-6358
▁فلا	-6359
▁قزح	-6360
▁قلب	-6361
▁قوس	-6362
▁قہر	-6363
▁لاچ	-6364
▁لون	-6365
▁لکس	-6366
▁لگن	-6367
▁لین	-6368
▁لیپ	-6369
▁مخم	-6370
▁مرا	-6371
▁مرض	-6372
▁مسل	-6373
▁مصن	-6374
▁مٹا	-6375
▁نان	-6376
▁نجم	-6377
▁نرم	-6378
▁نقد	-6379
▁نند	-6380
▁نپے	-6381
▁نیر	-6382
▁واج	-6383
▁ورق	-6384
▁ونی	-6385
▁پسم	-6386
▁پمپ	-6387
▁پہل	-6388
▁چال	-6389
▁چھل	-6390
▁ڈبے	-6391
▁ڈور	-6392
▁ڈٹے	-6393
▁کدے	-6394
▁کست	-6395
▁کفن	-6396
▁کلو	-6397
▁کنس	-6398
▁کوج	-6399
▁کچن	-6400
▁کھج	-6401
▁کھچ	-6402
▁کہے	-6403
▁گرز	-6404
▁گرل	-6405
▁گنو	-6406
▁گنگ	-6407
▁ھوں	-6408
▁ہجر	-6409
▁ہنر	-6410
▁ینگ	-6411
▁ینی	-6412
▁یکم	-6413
ائنسز	-6414
ادران	-6415
انیاں	-6416
تابوں	-6417
جوائے	-6418
حکومت	-6419
درامد	-6420
دیدار	-6421
رافیہ	-6422
رافیے	-6423
راہیم	-6424
رمانی	-6425
ریبوں	-6426
ریکٹر	-6427
ستقبل	-6428
لتمند	-6429
لطیاں	-6430
نٹیٹر	-6431
ورکیا	-6432
ولوجی	-6433
ونسلے	-6434
ٹالان	-6435
ٹیریا	-6436
کھلتا	-6437
ھیرنے	-6438
▁ئندہ	-6439
▁اجزا	-6440
▁ادیب	-6441
▁ارہی	-6442
▁ازبک	-6443
▁اعضا	-6444
▁الٹا	-6445
▁اورن	-6446
▁اونچ	-6447
▁اپیل	-6448
▁ایام	-6449
▁ایجو	-6450
▁بابل	-6451
▁باہم	-6452
▁بخار	-6453
▁بددل	-6454
▁بدلہ	-6455
▁برسے	-6456
▁بزدل	-6457
▁بلیک	-6458
▁بنتے	-6459
▁بوتل	-6460
▁بوتے	-6461
▁بگلے	-6462
▁بھرے	-6463
▁بھلی	-6464
▁بھوت	-6465
▁بہتی	-6466
▁بیشک	-6467
▁تبلی	-6468
▁تمیز	-6469
▁تناو	-6470
▁تنگی	-6471
▁تھکا	-6472
▁تیتر	-6473
▁جامد	-6474
▁جبیں	-6475
▁جعلی	-6476
▁جلسے	-6477
▁جوبن	-6478
▁جوتی	-6479
▁جوتے	-6480
▁حاوی	-6481
▁حربہ	-6482
▁خادم	-6483
▁خانی	-6484
▁خوان	-6485
▁داعش	-6486
▁دانہ	-6487
▁دانے	-6488
▁دلوا	-6489
▁دورے	-6490
▁دوڑا	-6491
▁دیکر	-6492
▁راجر	-6493
▁رسنل	-6494
▁رشوت	-6495
▁رمیز	-6496
▁رنجش	-6497
▁روزی	-6498
▁رومن	-6499
▁روکا	-6500
▁زخمی	-6501
▁زرعی	-6502
▁زعما	-6503
▁زینب	-6504
▁زیور	-6505
▁ساون	-6506
▁سرور	-6507
▁سروے	-6508
▁سفیر	-6509
▁سمرن	-6510
▁سٹیج	-6511
▁سیزن	-6512
▁سیلز	-6513
▁شائد	-6514
▁شخصی	-6515
▁شرعی	-6516
▁شرما	-6517
▁شرٹس	-6518
▁ششدر	-6519
▁شفاف	-6520
▁شورش	-6521
▁شہرت	-6522
▁شہرہ	-6523
▁صابر	-6524
▁صادق	-6525
▁صدقہ	-6526
▁صمیم	-6527
▁طبعی	-6528
▁طلعت	-6529
▁عہدے	-6530
▁فاقے	-6531
▁فرنٹ	-6532
▁فساد	-6533
▁فنون	-6534
▁قاصر	-6535
▁لائف	-6536
▁لالچ	-6537
▁لمحے	-6538
▁لٹکا	-6539
▁لڑتے	-6540
▁لڑنا	-6541
▁لڑنے	-6542
▁لہجے	-6543
▁لیبر	-6544
▁لیول	-6545
▁مائل	-6546
▁ماتم	-6547
▁مادر	-6548
▁مبشر	-6549
▁متون	-6550
▁مجال	-6551
▁محفل	-6552
▁مرتا	-6553
▁مساج	-6554
▁مشمل	-6555
▁مصرف	-6556
▁معرض	-6557
▁معطل	-6558
▁معین	-6559
▁مفتی	-6560
▁منطق	-6561
▁منفی	-6562
▁مووی	-6563
▁موٹر	-6564
▁میئر	-6565
▁نادہ	-6566
▁نبرد	-6567
▁نجوم	-6568
▁نرگس	-6569
▁ننھے	-6570
▁نوشی	-6571
▁نکسن	-6572
▁نیدر	-6573
▁نیلو	-6574
▁ورزش	-6575
▁وسنت	-6576
▁وعید	-6577
▁وقتی	-6578
▁ویزے	-6579
▁ٹاکر	-6580
▁ٹکرا	-6581
▁پانا	-6582
▁پاوں	-6583
▁پرلے	-6584
▁پرور	-6585
▁پڑوس	-6586
▁پکڑا	-6587
▁پھری	-6588
▁پھٹی	-6589
▁پیاز	-6590
▁پینٹ	-6591
▁پیہم	-6592
▁چلنا	-6593
▁چلیے	-6594
▁چکور	-6595
▁چھین	-6596
▁چیدہ	-6597
▁ڈراف	-6598
▁ڈرنا	-6599
▁ڈھول	-6600
▁ڈیٹا	-6601
▁کاجن	-6602
▁کاند	-6603
▁کبیر	-6604
▁کروٹ	-6605
▁کرہی	-6606
▁کریہ	-6607
▁کسٹم	-6608
▁کمار	-6609
▁کماں	-6610
▁کوسٹ	-6611
▁کولم	-6612
▁کوٹہ	-6613
▁کھان	-6614
▁کھاو	-6615
▁کھلے	-6616
▁کھچا	-6617
▁کھیت	-6618
▁کیسا	-6619
▁کیسز	-6620
▁کیفے	-6621
▁گائے	-6622
▁گردن	-6623
▁گسار	-6624
▁گلگت	-6625
▁گوبر	-6626
▁گوگل	-6627
▁گپیں	-6628
▁گھرے	-6629
▁گھسا	-6630
▁گھٹن	-6631
▁گیئر	-6632
▁ہاری	-6633
▁ہاسز	-6634
▁ہالی	-6635
▁ہتھی	-6636
▁ہمسا	-6637
▁ہیئر	-6638
▁یکدم	-6639
الرحمن	-6640
الرحیم	-6641
رہماری	-6642
وبصورت	-6643
ٹیلیٹر	-6644
گردانی	-6645
یشیائی	-6646
▁ائندہ	-6647
▁ابہام	-6648
▁اجاگر	-6649
▁اجماع	-6650
▁احوال	-6651
▁اربوں	-6652
▁اسامہ	-6653
▁اسلحے	-6654
▁اسٹون	-6655
▁اسٹیل	-6656
▁اصلیت	-6657
▁اعزاز	-6658
▁اعمال	-6659
▁اقامہ	-6660
▁الحاق	-6661
▁الطاف	-6662
▁امریت	-6663
▁انتھک	-6664
▁اوجھل	-6665
▁اورجو	-6666
▁اٹھاد	-6667
▁اڑانے	-6668
▁بائیں	-6669
▁بارڈر	-6670
▁باریک	-6671
▁بازوں	-6672
▁باعزت	-6673
▁بانجھ	-6674
▁باندی	-6675
▁بانڈز	-6676
▁بتاتے	-6677
▁بدلتی	-6678
▁بدلیں	-6679
▁برانچ	-6680
▁برستا	-6681
▁برہنہ	-6682
▁بسیرا	-6683
▁بظاہر	-6684
▁بندوق	-6685
▁بندوں	-6686
▁بوندا	-6687
▁بچھڑے	-6688
▁بکھری	-6689
▁بھاتی	-6690
▁بھاگم	-6691
▁بہائی	-6692
▁بیجنگ	-6693
▁تطہیر	-6694
▁تقاضا	-6695
▁تقریب	-6696
▁تنازع	-6697
▁توعقل	-6698
▁توفیق	-6699
▁تھامس	-6700
▁جامنی	-6701
▁جلائے	-6702
▁جمشید	-6703
▁جوانی	-6704
▁خاصیت	-6705
▁خبروں	-6706
▁خریدی	-6707
▁خلائی	-6708
▁دائمی	-6709
▁داروں	-6710
▁دبانے	-6711
▁دعاگو	-6712
▁دوسال	-6713
▁دھریں	-6714
▁دھیان	-6715
▁دیانت	-6716
▁دیکھے	-6717
▁راشدہ	-6718
▁رشتوں	-6719
▁رفتار	-6720
▁روابط	-6721
▁رہاہے	-6722
▁رہبرا	-6723
▁زیریں	-6724
▁ساختہ	-6725
▁سانچے	-6726
▁سبحان	-6727
▁سبسڈی	-6728
▁سجادہ	-6729
▁سرائے	-6730
▁سرینا	-6731
▁سلسلے	-6732
▁سندھی	-6733
▁سنوار	-6734
▁سٹائل	-6735
▁سپاٹا	-6736
▁سکالر	-6737
▁سکندر	-6738
▁سگریٹ	-6739
▁سیدھا	-6740
▁سیکھا	-6741
▁سیکھے	-6742
▁شرافت	-6743
▁شراکت	-6744
▁شوٹنگ	-6745
▁شوکاز	-6746
▁صداقت	-6747
▁صدیاں	-6748
▁صفحوں	-6749
▁ضمانت	-6750
▁طوفاں	-6751
▁طیارہ	-6752
▁عافیت	-6753
▁عالیہ	-6754
▁عسکری	-6755
▁عقیدے	-6756
▁عموما	-6757
▁فاختہ	-6758
▁فاطمی	-6759
▁فراٹے	-6760
▁فرینچ	-6761
▁فقدان	-6762
▁فوائد	-6763
▁فکریہ	-6764
▁لہجوں	-6765
▁لیموں	-6766
▁مارکس	-6767
▁ماڈرن	-6768
▁متروک	-6769
▁مجاہد	-6770
▁محافل	-6771
▁مخدوش	-6772
▁مدرسہ	-6773
▁مرحوم	-6774
▁مسافت	-6775
▁مسکان	-6776
▁مشکوک	-6777
▁مطلوب	-6778
▁معجزے	-6779
▁معرفت	-6780
▁معرکے	-6781
▁معنوں	-6782
▁منسلک	-6783
▁موریا	-6784
▁مولبی	-6785
▁ناداں	-6786
▁ناشتے	-6787
▁ندیاں	-6788
▁نمٹنا	-6789
▁نوازا	-6790
▁نگران	-6791
▁واسطہ	-6792
▁ورکرز	-6793
▁وظائف	-6794
▁ٹاکرا	-6795
▁ٹریفک	-6796
▁ٹینشن	-6797
▁پارسی	-6798
▁پانچھ	-6799
▁پناہی	-6800
▁پنڈال	-6801
▁پولنگ	-6802
▁پھرتی	-6803
▁پھرتے	-6804
▁پھندہ	-6805
▁پیروی	-6806
▁پیپرز	-6807
▁چاٹتے	-6808
▁چایئے	-6809
▁چلائی	-6810
▁چوتھے	-6811
▁چونکا	-6812
▁چڑچڑا	-6813
▁چھوڑا	-6814
▁چہیتے	-6815
▁ڈالیں	-6816
▁کراٹے	-6817
▁کرایا	-6818
▁کرتوت	-6819
▁کرلئے	-6820
▁کرلیں	-6821
▁کمرشل	-6822
▁کنکشن	-6823
▁کوئلہ	-6824
▁کوئلے	-6825
▁کھاتے	-6826
▁کھایا	-6827
▁کھیلی	-6828
▁کینری	-6829
▁کینیا	-6830
▁کیوبا	-6831
▁کےحسن	-6832
▁گانوں	-6833
▁گزرتی	-6834
▁ہائیر	-6835
▁ہارون	-6836
▁ہرطرح	-6837
▁ہفتوں	-6838
▁ہمانگ	-6839
▁ہٹانے	-6840
▁ہیکرز	-6841
▁یورپا	-6842
▁یکساں	-6843
رانوالہ	-6844
▁ائلینڈ	-6845
▁اجنبیت	-6846
▁احطیاط	-6847
▁اراکین	-6848
▁استہزا	-6849
▁اسکندر	-6850
▁اصلاحی	-6851
▁افتتاح	-6852
▁افسانے	-6853
▁الاسٹک	-6854
▁البروج	-6855
▁الجھتے	-6856
▁امتزاج	-6857
▁انارکی	-6858
▁انوشکا	-6859
▁انڈورا	-6860
▁انکاری	-6861
▁انگولا	-6862
▁اوراگر	-6863
▁اوریہی	-6864
▁اچھائی	-6865
▁باتچیت	-6866
▁برائڈل	-6867
▁برازیل	-6868
▁بزرگوں	-6869
▁بلاوجہ	-6870
▁بنوانا	-6871
▁بھرمار	-6872
▁بھگوال	-6873
▁بھیجنے	-6874
▁بہرطور	-6875
▁بہلایا	-6876
▁بینکنگ	-6877
▁بیٹھتا	-6878
▁بیچارے	-6879
▁تصورات	-6880
▁تمباکو	-6881
▁توقعات	-6882
▁توقیفی	-6883
▁تیندوے	-6884
▁جرمانہ	-6885
▁خواہاں	-6886
▁خودبین	-6887
▁دانشور	-6888
▁دشمناں	-6889
▁دوبالا	-6890
▁دھراتے	-6891
▁دھندلا	-6892
▁دیرینہ	-6893
▁روٹیوں	-6894
▁رہنمائ	-6895
▁رہنماں	-6896
▁زائرین	-6897
▁ساتویں	-6898
▁سالانہ	-6899
▁سالگرہ	-6900
▁سبزیاں	-6901
▁ستاروں	-6902
▁سنجیدہ	-6903
▁سوالیہ	-6904
▁سکولوں	-6905
▁سکھاتے	-6906
▁سیکھتا	-6907
▁سیکھنے	-6908
▁شرمسار	-6909
▁صنعتوں	-6910
▁طاقتور	-6911
▁طاقتیں	-6912
▁عباسیہ	-6913
▁علیحدہ	-6914
▁عیسائی	-6915
▁فرشتوں	-6916
▁فیلڈنگ	-6917
▁فیکٹری	-6918
▁لالیگا	-6919
▁لگوائے	-6920
▁متحارب	-6921
▁مدافعت	-6922
▁مزاحیہ	-6923
▁مشاہدہ	-6924
▁مضاربہ	-6925
▁مظاہرے	-6926
▁معنویت	-6927
▁ملاحظہ	-6928
▁مناسبت	-6929
▁منافقت	-6930
▁منظریہ	-6931
▁موبائل	-6932
▁موٹروے	-6933
▁میڈیکل	-6934
▁ناظرین	-6935
▁ناقدین	-6936
▁نکالتے	-6937
▁واٹمور	-6938
▁وریندر	-6939
▁ٹائپنگ	-6940
▁ٹانگوں	-6941
▁ٹریننگ	-6942
▁ٹکرائے	-6943
▁پرملیں	-6944
▁پلاننگ	-6945
▁پلانٹس	-6946
▁پگھلتے	-6947
▁پہنتیں	-6948
▁پیشیاں	-6949
▁پیمانہ	-6950
▁چاکلیٹ	-6951
▁چڑھایا	-6952
▁ڈھلوان	-6953
▁ڈھونڈو	-6954
▁کارندے	-6955
▁کاکوئی	-6956
▁کتابوں	-6957
▁کرائیں	-6958
▁کردیتی	-6959
▁کردیتے	-6960
▁کرلیتے	-6961
▁کروڑوں	-6962
▁کستوری	-6963
▁کمازکم	-6964
▁کمزوری	-6965
▁کنشاسا	-6966
▁کوپورا	-6967
▁کپریال	-6968
▁کھیلتے	-6969
▁کھیلیں	-6970
▁کیساتھ	-6971
▁کینٹین	-6972
▁گرفتار	-6973
▁گزارنے	-6974
▁گھریلو	-6975
▁ہنگامے	-6976
▁ہوشربا	-6977
▁یونانی	-6978
▁ابراہیم	-6979
▁انجوائے	-6980
▁انگلیاں	-6981
▁اورخیال	-6982
▁اورقانو	-6983
▁اورکیسے	-6984
▁اٹلانٹک	-6985
▁ایتھلیٹ	-6986
▁ایمیزون	-6987
▁بارہواں	-6988
▁بدقسمتی	-6989
▁برادران	-6990
▁بندرگاہ	-6991
▁بنیادوں	-6992
▁بنیادیں	-6993
▁بکھیرنے	-6994
▁بھائیوں	-6995
▁خانیوال	-6996
▁دولتمند	-6997
▁دھائیوں	-6998
▁ریزگاری	-6999
▁ریلائنس	-7000
▁ریکارڈز	-7001
▁سمجھانا	-7002
▁سنبھالو	-7003
▁سنسناٹی	-7004
▁سینکڑوں	-7005
▁طبیعیات	-7006
▁علاقائی	-7007
▁عہدیدار	-7008
▁فاکلینڈ	-7009
▁لسانیات	-7010
▁مالیاتی	-7011
▁مانچسٹر	-7012
▁منگیشکر	-7013
▁مولویوں	-7014
▁نقصانات	-7015
▁واشنگٹن	-7016
▁ٹکرائیں	-7017
▁پریشانی	-7018
▁پچھتاوا	-7019
▁پھیلائی	-7020
▁پیمانوں	-7021
▁کارکنوں	-7022
▁کرتاچلا	-7023
▁کمنٹیٹر	-7024
▁کہانیاں	-7025
▁کینٹیکی	-7026
▁کیٹالان	-7027
▁گنوائیں	-7028
▁گھونسلے	-7029
▁ہسپانیہ	-7030
▁ہوگیاہے	-7031
▁ہیروزکا	-7032
فورالرحیم	-7033
▁اریٹیریا	-7034
▁اسپیشلسٹ	-7035
▁اپلائنسز	-7036
▁ایجوکیشن	-7037
▁ایکسپائر	-7038
▁ترکتابوں	-7039
▁حیدراباد	-7040
▁داستانیں	-7041
▁روگردانی	-7042
▁ریاضیاتی	-7043
▁صاحبزادی	-7044
▁عملدرامد	-7045
▁مانیٹرنگ	-7046
▁میراگاوں	-7047
▁نافرمانی	-7048
▁نوجوانوں	-7049
▁پارلیمنٹ	-7050
▁پیداواری	-7051
▁ڈائریکٹر	-7052
▁کمزوریوں	-7053
▁ہمراہیوں	-7054
▁ہنسائیاں	-7055
▁ہونیوالے	-7056
▁ہوگاوسیم	-7057
▁یونیفارم	-7058
▁الطبیعیات	-7059
▁انڈیزشاہد	-7060
▁اورمستقبل	-7061
▁خاطرہماری	-7062
▁نیدرلینڈز	-7063
▁ٹیکنولوجی	-7064
▁گالیشیائی	-7065
▁امیتابھبچن	-7066
▁اورخوبصورت	-7067
▁شاندارشکست	-7068
▁فیفاورلڈکپ	-7069
▁کبھارکھلتا	-7070
▁ریفریجریٹرز	-7071
▁یونیورسٹیوں	-7072
تن	-7073
تو	-7074
رپ	-7075
ضر	-7076
ضم	-7077
فے	-7078
مش	-7079
مع	-7080
نھ	-7081
وح	-7082
ٹش	-7083
پڑ	-7084
گڈ	-7085
یظ	-7086
ئنا	-7087
ئیم	-7088
ابہ	-7089
اعد	-7090
اکے	-7091
باک	-7092
بقل	-7093
بلڈ	-7094
بلے	-7095
بون	-7096
بیو	-7097
تاز	-7098
جوش	-7099
بخ	-7100
ھم	-7101
ئلے	-7102
ئیر	-7103
انح	-7104
دھر	-7105
دھن	-7106
زنگ	-7107
سبز	-7108
سبو	-7109
سلم	-7110
سنل	-7111
صار	-7112
عزم	-7113
فند	-7114
قعہ	-7115
لفظ	-7116
لیس	-7117
ماہ	-7118
ملے	-7119
موم	-7120
میض	-7121
نظر	-7122
نٹر	-7123
نگر	-7124
نہم	-7125
نیو	-7126
وات	-7127
ورر	-7128
ورک	-7129
وصف	-7130
ولس	-7131
ولہ	-7132
ونخ	-7133
ونو	-7134
ونڈ	-7135
وپا	-7136
ٹزر	-7137
پوٹ	-7138
پیٹ	-7139
ڈال	-7140
کلم	-7141
کول	-7142
گنی	-7143
ہرا	-7144
یاش	-7145
یور	-7146
یوم	-7147
یڈن	-7148
یکہ	-7149
▁ئر	-7150
▁جک	-7151
▁خس	-7152
▁رب	-7153
▁زب	-7154
▁سخ	-7155
▁ضو	-7156
▁عک	-7157
▁مڈ	-7158
▁وٹ	-7159
▁ٹف	-7160
▁ٹل	-7161
▁پٹ	-7162
▁پچ	-7163
▁چہ	-7164
▁ڈس	-7165
▁ھا	-7166
▁ہپ	-7167
▁ہڈ	-7168
▁ہڑ	-7169
▁یخ	-7170
▁یر	-7171
▁ین	-7172
▁یے	-7173
ئینٹ	-7174
ائرن	-7175
ائزر	-7176
احمد	-7177
ادرب	-7178
ادلہ	-7179
اسکٹ	-7180
التہ	-7181
امیم	-7182
اورس	-7183
اکچھ	-7184
اکیا	-7185
اہلی	-7186
باپے	-7187
بھتی	-7188
جائے	-7189
جسٹم	-7190
جمنٹ	-7191
جہاد	-7192
جیٹل	-7193
خیرے	-7194
دریج	-7195
دعوی	-7196
دودھ	-7197
رادف	-7198
رتسر	-7199
ئرا	-7200
ئنز	-7201
رفہ	-7202
عرے	-7203
فٹی	-7204
لڈن	-7205
وٹا	-7206
گرس	-7207
یلت	-7208
▁وے	-7209
▁یش	-7210
ابقت	-7211
اتھے	-7212
ریقی	-7213
زائی	-7214
زہری	-7215
ستجو	-7216
سرار	-7217
سودہ	-7218
سٹرڈ	-7219
سینی	-7220
شمول	-7221
طرفہ	-7222
فساد	-7223
فسیر	-7224
فیکٹ	-7225
قومی	-7226
لانا	-7227
لندن	-7228
ملوں	-7229
ملکی	-7230
مکنہ	-7231
مگین	-7232
نازع	-7233
ناڈا	-7234
نمائ	-7235
نوان	-7236
نٹوا	-7237
نڈول	-7238
نگوں	-7239
نہار	-7240
نیئر	-7241
وارا	-7242
وانہ	-7243
وانی	-7244
وخال	-7245
ودگی	-7246
ودیت	-7247
ورنے	-7248
وروف	-7249
وقتی	-7250
ومدد	-7251
ونیز	-7252
وکھا	-7253
پیدا	-7254
پینو	-7255
چھاڑ	-7256
ڈیال	-7257
ڑھار	-7258
کھوں	-7259
کیوں	-7260
گانہ	-7261
ہاری	-7262
یاطی	-7263
یالم	-7264
یزان	-7265
یمتی	-7266
یمنے	-7267
یمیٹ	-7268
ینڈر	-7269
ینیش	-7270
ےایس	-7271
▁اجر	-7272
▁اشک	-7273
▁الخ	-7274
▁اگل	-7275
▁اہٹ	-7276
▁ایر	-7277
▁بائ	-7278
▁بشر	-7279
▁بقا	-7280
▁بقہ	-7281
▁بلو	-7282
▁بہم	-7283
▁تلہ	-7284
▁تہی	-7285
▁جار	-7286
▁جزو	-7287
▁جمی	-7288
▁جنی	-7289
▁جھٹ	-7290
▁جھک	-7291
▁جیم	-7292
▁دفع	-7293
▁دلہ	-7294
▁دنگ	-7295
▁راک	-7296
▁رند	-7297
▁رون	-7298
▁رکے	-7299
مس	-7300
یچ	-7301
ائض	-7302
اسو	-7303
برط	-7304
سمہ	-7305
سٹھ	-7306
چرز	-7307
ڈشی	-7308
کیو	-7309
ائدا	-7310
ابیر	-7311
ادگی	-7312
بننے	-7313
جانی	-7314
جیئے	-7315
رانا	-7316
ومین	-7317
ینشن	-7318
ینگی	-7319
▁اجڑ	-7320
▁ارط	-7321
▁بمب	-7322
▁دھن	-7323
▁روٹ	-7324
▁زرد	-7325
▁زلف	-7326
▁زون	-7327
▁زکو	-7328
▁سائ	-7329
▁ساڑ	-7330
▁سای	-7331
▁ستر	-7332
▁سجا	-7333
▁سجھ	-7334
▁سطر	-7335
▁سوس	-7336
▁سچا	-7337
▁شفا	-7338
▁شمش	-7339
▁شوش	-7340
▁شوٹ	-7341
▁شین	-7342
▁طرع	-7343
▁طوق	-7344
▁عبد	-7345
▁عزہ	-7346
▁عین	-7347
▁فائ	-7348
▁قاز	-7349
▁لاج	-7350
▁لرز	-7351
▁لقب	-7352
▁ماش	-7353
▁محد	-7354
▁محل	-7355
▁مزہ	-7356
▁مسز	-7357
▁مشا	-7358
▁منے	-7359
▁موج	-7360
▁موڈ	-7361
▁مکی	-7362
▁مہک	-7363
▁نجف	-7364
▁نصف	-7365
▁نگم	-7366
▁واع	-7367
▁وجل	-7368
▁ومب	-7369
▁ونگ	-7370
▁ووک	-7371
▁ویں	-7372
▁ٹان	-7373
▁ٹیل	-7374
▁پلے	-7375
▁پند	-7376
▁پنپ	-7377
▁پوش	-7378
▁پوچ	-7379
▁پکو	-7380
▁پیو	-7381
▁چمچ	-7382
▁چکن	-7383
▁چھت	-7384
▁چھڑ	-7385
▁ڈرا	-7386
▁ڈکٹ	-7387
▁ڈین	-7388
▁ڈیٹ	-7389
▁کرج	-7390
▁کری	-7391
▁کشت	-7392
▁کشش	-7393
▁کلا	-7394
▁کلم	-7395
▁کلہ	-7396
▁کنف	-7397
▁کھر	-7398
▁کھٹ	-7399
بعد	-7400
تاج	-7401
روش	-7402
فیہ	-7403
پند	-7404
یہی	-7405
حالی	-7406
دارت	-7407
رمیں	-7408
شروع	-7409
میشن	-7410
نڈنگ	-7411
وبار	-7412
یکٹر	-7413
▁اوہ	-7414
▁اکے	-7415
▁باچ	-7416
▁بلت	-7417
▁بچہ	-7418
▁جفا	-7419
▁جنس	-7420
▁خرا	-7421
▁ریو	-7422
▁ساف	-7423
▁صحن	-7424
▁صفت	-7425
▁فاش	-7426
▁مدح	-7427
▁مزے	-7428
▁ناچ	-7429
▁نصب	-7430
▁چہر	-7431
▁کاک	-7432
▁کسر	-7433
▁کسے	-7434
▁کیو	-7435
▁کیچ	-7436
▁کےع	-7437
▁گاڈ	-7438
▁گلو	-7439
▁گمب	-7440
▁گنی	-7441
▁گھی	-7442
▁ہتھ	-7443
ابیجی	-7444
ارڈوم	-7445
انسان	-7446
انستہ	-7447
انکنے	-7448
اکیوں	-7449
جومنہ	-7450
جوہات	-7451
خصوصی	-7452
دونوں	-7453
ریقین	-7454
ریٹری	-7455
سلمین	-7456
سپورٹ	-7457
عاملہ	-7458
فیقات	-7459
قستان	-7460
لادیش	-7461
منگھم	-7462
مہنگے	-7463
مینان	-7464
ناٹزم	-7465
ناکشی	-7466
نھالو	-7467
واسطہ	-7468
والوں	-7469
واڈور	-7470
وشمان	-7471
وشیدا	-7472
وناچا	-7473
ونکتے	-7474
پورٹس	-7475
پوٹرو	-7476
چیزیں	-7477
کرائب	-7478
کھاہے	-7479
گاروں	-7480
گریشن	-7481
گونیز	-7482
گھنٹے	-7483
ھارٹی	-7484
ہارون	-7485
یابند	-7486
یابین	-7487
یستان	-7488
یندرا	-7489
▁ائرن	-7490
▁ائیو	-7491
▁استن	-7492
▁اسما	-7493
▁اسمت	-7494
▁اشتہ	-7495
▁اشرف	-7496
▁اصلی	-7497
▁الار	-7498
▁البر	-7499
▁رف	-7500
اموش	-7501
متیں	-7502
▁ریڈ	-7503
▁نیٹ	-7504
▁ڈیپ	-7505
▁کرر	-7506
▁کلف	-7507
▁ہاش	-7508
ئنایم	-7509
ٹرفیس	-7510
▁ائیس	-7511
▁امدن	-7512
▁امیج	-7513
▁انڈر	-7514
▁اچھل	-7515
▁اڈیو	-7516
▁اکیس	-7517
▁ایات	-7518
▁بائی	-7519
▁باسا	-7520
▁بالا	-7521
▁باڈی	-7522
▁بخیر	-7523
▁بدلو	-7524
▁برون	-7525
▁برکت	-7526
▁بریڈ	-7527
▁بستہ	-7528
▁بلاک	-7529
▁بنجر	-7530
▁بچار	-7531
▁بچیں	-7532
▁بڑھی	-7533
▁بھار	-7534
▁بھڑک	-7535
▁بھیڑ	-7536
▁بہنے	-7537
▁بیحد	-7538
▁بیرل	-7539
▁تالا	-7540
▁تامل	-7541
▁تجھے	-7542
▁تحمل	-7543
▁تسلی	-7544
▁تلفظ	-7545
▁تناز	-7546
▁تنفی	-7547
▁تھما	-7548
▁تھپڑ	-7549
▁جائن	-7550
▁جاکر	-7551
▁جزوی	-7552
▁جعفر	-7553
▁جلتا	-7554
▁جلسہ	-7555
▁جلوہ	-7556
▁جواز	-7557
▁جوتا	-7558
▁جہیز	-7559
▁جیری	-7560
▁جیمز	-7561
▁حریف	-7562
▁حسرت	-7563
▁حصوں	-7564
▁حلیہ	-7565
▁خاصہ	-7566
▁خالد	-7567
▁خاکے	-7568
▁خبرد	-7569
▁خدمت	-7570
▁خرقہ	-7571
▁خزاں	-7572
▁خلوص	-7573
▁خواص	-7574
▁درجن	-7575
▁دستر	-7576
▁دعوی	-7577
▁دورا	-7578
▁دھلا	-7579
▁دیوی	-7580
▁دیوے	-7581
▁راجہ	-7582
▁رانا	-7583
▁رانک	-7584
▁راہی	-7585
▁رشید	-7586
▁رفیق	-7587
▁رکنی	-7588
▁رھیں	-7589
▁رہنی	-7590
▁ریچھ	-7591
▁زادی	-7592
▁زیاں	-7593
▁زینت	-7594
▁ساحل	-7595
▁سالے	-7596
▁سنجے	-7597
▁سننا	-7598
▁سونو	-7599
▁سوپر	-7600
▁سوکھ	-7601
▁سٹیل	-7602
▁سکوت	-7603
▁سیشن	-7604
▁شاخس	-7605
▁شافی	-7606
▁شاہر	-7607
▁شلپا	-7608
▁شوشے	-7609
▁شیعہ	-7610
▁صدقے	-7611
▁صواب	-7612
▁ضامن	-7613
▁طلبا	-7614
▁ظہور	-7615
▁عادی	-7616
▁عدسہ	-7617
▁عراق	-7618
▁عروہ	-7619
▁عصمت	-7620
▁عمان	-7621
▁عکاس	-7622
▁عیاش	-7623
▁عیاں	-7624
▁فادر	-7625
▁فالو	-7626
▁فراق	-7627
▁فراڈ	-7628
▁فرقے	-7629
▁فرنگ	-7630
▁فعال	-7631
▁فلاپ	-7632
▁فواد	-7633
▁فونز	-7634
▁قابض	-7635
▁قرضے	-7636
▁قضیہ	-7637
▁قمیض	-7638
▁لفظی	-7639
▁لمبے	-7640
▁لپیٹ	-7641
▁لگنی	-7642
▁لگیں	-7643
▁لیور	-7644
▁لیکس	-7645
▁لیگی	-7646
▁مئلے	-7647
▁ماجد	-7648
▁مادھ	-7649
▁ماری	-7650
▁مالا	-7651
▁مالہ	-7652
▁ماند	-7653
▁مانع	-7654
▁مبہم	-7655
▁مجلس	-7656
▁محرم	-7657
▁مدعی	-7658
▁مرتے	-7659
▁مریخ	-7660
▁مسلح	-7661
▁مسلک	-7662
▁معمر	-7663
▁مقدر	-7664
▁مندے	-7665
▁مواد	-7666
▁مولا	-7667
▁موٹا	-7668
▁مکین	-7669
▁میڈم	-7670
▁ندیم	-7671
▁نسلی	-7672
▁نشاط	-7673
▁نشست	-7674
▁نقطہ	-7675
▁نندا	-7676
▁ننگے	-7677
▁نویں	-7678
▁نکات	-7679
▁نکمی	-7680
▁نیوز	-7681
▁واعظ	-7682
▁ورون	-7683
▁وقوف	-7684
▁ولیس	-7685
▁ٹاپس	-7686
▁ٹوٹا	-7687
▁ٹکٹس	-7688
▁ٹیزر	-7689
▁پاتی	-7690
▁پارہ	-7691
▁پانے	-7692
▁پتلا	-7693
▁پراس	-7694
▁پراگ	-7695
▁پرمٹ	-7696
▁پزدل	-7697
▁پزیر	-7698
▁پلیٹ	-7699
▁پورٹ	-7700
▁پیام	-7701
▁پیرس	-7702
▁پیٹھ	-7703
▁چالو	-7704
▁چلتن	-7705
▁چنتے	-7706
▁چندہ	-7707
▁چودہ	-7708
▁چکنا	-7709
▁چھاپ	-7710
▁چھلک	-7711
▁چھڑے	-7712
▁ڈانس	-7713
▁ڈرتا	-7714
▁ڈنڈے	-7715
▁ڈومن	-7716
▁ڈومی	-7717
▁ڈپٹی	-7718
▁ڈھکن	-7719
▁ڈیرے	-7720
▁ڈیوڈ	-7721
▁کاشت	-7722
▁کالج	-7723
▁کالز	-7724
▁کاوش	-7725
▁کرپٹ	-7726
▁کشمش	-7727
▁کلمہ	-7728
▁کلچر	-7729
▁کنیت	-7730
▁کورس	-7731
▁کھلو	-7732
▁کیون	-7733
▁کےپا	-7734
▁گالی	-7735
▁گروی	-7736
▁گھسی	-7737
▁گینڈ	-7738
▁ھمیں	-7739
▁ھوگی	-7740
▁ہارٹ	-7741
▁ہراس	-7742
▁ہستی	-7743
▁ہلچل	-7744
▁ہمزہ	-7745
▁ہوٹل	-7746
▁یارو	-7747
▁یارک	-7748
ائنریز	-7749
ائیشیا	-7750
جسٹمنٹ	-7751
سالانہ	-7752
لاجازت	-7753
ماہرین	-7754
مقدمات	-7755
نٹریاں	-7756
نڈولکر	-7757
وروفکر	-7758
ٹاگرام	-7759
پندیدہ	-7760
ڈشیڈنگ	-7761
گزینڈر	-7762
یرملکی	-7763
یوسینا	-7764
▁ابلیس	-7765
▁اجاتا	-7766
▁اجنبی	-7767
▁احکام	-7768
▁اخوان	-7769
▁اداری	-7770
▁اداسی	-7771
▁ازیری	-7772
▁اساسی	-7773
▁اسطرح	-7774
▁اسفند	-7775
▁اسلاف	-7776
▁اسمتھ	-7777
▁اشارے	-7778
▁اشعار	-7779
▁اشعرا	-7780
▁اشفتہ	-7781
▁اعراض	-7782
▁اقوال	-7783
▁الخفا	-7784
▁الوقت	-7785
▁الووں	-7786
▁امراض	-7787
▁انفرا	-7788
▁انڈین	-7789
▁اواری	-7790
▁اوراب	-7791
▁اوران	-7792
▁اورنگ	-7793
▁اورنہ	-7794
▁اورگڈ	-7795
▁اورہم	-7796
▁اولمپ	-7797
▁اوڑھے	-7798
▁اوکھے	-7799
▁اٹھان	-7800
▁اٹھتے	-7801
▁اٹھنے	-7802
▁اپنوں	-7803
▁اکریہ	-7804
▁ایبلڈ	-7805
▁اینکر	-7806
▁ایوان	-7807
▁بائبل	-7808
▁بائرن	-7809
▁بائیک	-7810
▁بارہا	-7811
▁باسکٹ	-7812
▁بالرز	-7813
▁باوصف	-7814
▁باہمت	-7815
▁بتانی	-7816
▁بخاری	-7817
▁برائی	-7818
▁برباد	-7819
▁برتنی	-7820
▁برقعہ	-7821
▁بشمول	-7822
▁بناتی	-7823
▁بوئیں	-7824
▁بوسٹن	-7825
▁بولتا	-7826
▁بولنا	-7827
▁بچانے	-7828
▁بگاہے	-7829
▁بھولے	-7830
▁بہانہ	-7831
▁تاویل	-7832
▁تجربے	-7833
▁تجسیم	-7834
▁تفسیر	-7835
▁توسیع	-7836
▁تھامے	-7837
▁تھاپا	-7838
▁تھیٹر	-7839
▁تہران	-7840
▁تہوار	-7841
▁جانچا	-7842
▁جبوتی	-7843
▁جزیرہ	-7844
▁جستجو	-7845
▁جلائی	-7846
▁جنونی	-7847
▁جنگوں	-7848
▁جوڑوں	-7849
▁جہادی	-7850
▁جینئس	-7851
▁حالیہ	-7852
▁حتیکہ	-7853
▁حقارت	-7854
▁حقانی	-7855
▁خاتمے	-7856
▁خریدا	-7857
▁خزانے	-7858
▁خوانی	-7859
▁دبائو	-7860
▁درگوا	-7861
▁دریچے	-7862
▁دستور	-7863
▁دسواں	-7864
▁دوگھر	-7865
▁دکھوں	-7866
▁دھرتی	-7867
▁دھرنا	-7868
▁دھواں	-7869
▁دھونے	-7870
▁دہلوی	-7871
▁دہلیز	-7872
▁دیرپا	-7873
▁دیوتا	-7874
▁راشدی	-7875
▁راہیں	-7876
▁رحجان	-7877
▁رسالت	-7878
▁رنراپ	-7879
▁روندا	-7880
▁روکیں	-7881
▁رکازی	-7882
▁ریاضی	-7883
▁ریسلر	-7884
▁زیارت	-7885
▁زیرلب	-7886
▁زیورخ	-7887
▁سابقہ	-7888
▁سادگی	-7889
▁ساڑھے	-7890
▁ستارے	-7891
▁سرتاج	-7892
▁سرسبز	-7893
▁سرسٹھ	-7894
▁سرمئی	-7895
▁سطحوں	-7896
▁سماعت	-7897
▁سنبھل	-7898
▁سنسان	-7899
▁سوانح	-7900
▁سویڈن	-7901
▁سپیکر	-7902
▁سکائی	-7903
▁سکرین	-7904
▁سیدنا	-7905
▁سینڈک	-7906
▁شاعرہ	-7907
▁شامیں	-7908
▁شاپنگ	-7909
▁شرارت	-7910
▁شوقین	-7911
▁شکنیں	-7912
▁شیزان	-7913
▁شیٹھی	-7914
▁صحابہ	-7915
▁صحافت	-7916
▁صدارت	-7917
▁ضوابط	-7918
▁طیارے	-7919
▁عداوت	-7920
▁عروسی	-7921
▁فارمز	-7922
▁فاصلہ	-7923
▁فاطمہ	-7924
▁فالتو	-7925
▁فرائض	-7926
▁فضائی	-7927
▁فضیلت	-7928
▁فوسٹر	-7929
▁فیچرز	-7930
▁قائدا	-7931
▁قادری	-7932
▁قبائل	-7933
▁قدامت	-7934
▁قصبات	-7935
▁قواعد	-7936
▁قیمتی	-7937
▁لارڈز	-7938
▁لبریز	-7939
▁لونڈا	-7940
▁لوٹوں	-7941
▁لوٹیں	-7942
▁لگئیں	-7943
▁لیاقت	-7944
▁لیجیے	-7945
▁ماتھے	-7946
▁مارنی	-7947
▁مارکہ	-7948
▁مانگی	-7949
▁مبہوت	-7950
▁متعین	-7951
▁متنوع	-7952
▁متوقع	-7953
▁متکلم	-7954
▁مجمعے	-7955
▁محکوم	-7956
▁مخمصہ	-7957
▁مداری	-7958
▁مردان	-7959
▁مردوں	-7960
▁مساجد	-7961
▁مسیحی	-7962
▁مشاہد	-7963
▁مشکور	-7964
▁مصنفہ	-7965
▁مطلبی	-7966
▁مظالم	-7967
▁معافی	-7968
▁معتبر	-7969
▁معصوم	-7970
▁ملانے	-7971
▁ملتوی	-7972
▁ملیوس	-7973
▁ممتاز	-7974
▁ممکنہ	-7975
▁منصور	-7976
▁منڈوا	-7977
▁میسنج	-7978
▁میمنے	-7979
▁میونخ	-7980
▁میںیہ	-7981
▁ناموں	-7982
▁نایاب	-7983
▁نظارے	-7984
▁نمبری	-7985
▁نکولس	-7986
▁وائرل	-7987
▁وارنر	-7988
▁وٹامن	-7989
▁ویرات	-7990
▁ویراٹ	-7991
▁ٹانکا	-7992
▁ٹاکرے	-7993
▁ٹرینگ	-7994
▁ٹنٹوا	-7995
▁ٹیونز	-7996
▁پرایک	-7997
▁پربھی	-7998
▁پرجوش	-7999
▁پرخری	-8000
▁پرسنل	-8001
▁پرعزم	-8002
▁پرواہ	-8003
▁پندرہ	-8004
▁پکڑنا	-8005
▁پھرتا	-8006
▁پھروں	-8007
▁پیروں	-8008
▁چبھتی	-8009
▁چلاتا	-8010
▁چولہے	-8011
▁چکانے	-8012
▁ڈالتا	-8013
▁ڈرافٹ	-8014
▁ڈسپیچ	-8015
▁ڈیبیو	-8016
▁ڈیوٹی	-8017
▁کانٹا	-8018
▁کانٹے	-8019
▁کاٹنا	-8020
▁کایہی	-8021
▁کرتیں	-8022
▁کرسکی	-8023
▁کرگئی	-8024
▁کمانے	-8025
▁کوراہ	-8026
▁کوستا	-8027
▁کولون	-8028
▁کوموت	-8029
▁کونسا	-8030
▁کونسل	-8031
▁کوکار	-8032
▁کھاتی	-8033
▁کھیلو	-8034
▁کھیلے	-8035
▁کیساے	-8036
▁کےبعد	-8037
▁کےمرد	-8038
▁کےنام	-8039
▁گاہوں	-8040
▁گجرات	-8041
▁گزرنے	-8042
▁گوارا	-8043
▁گھٹیا	-8044
▁گھیرا	-8045
▁گیبون	-8046
▁ہالوں	-8047
▁ہمارہ	-8048
▁ہورہی	-8049
▁ہوچکے	-8050
▁ہٹانا	-8051
▁ہٹایا	-8052
▁ہڑتال	-8053
▁ہیئرا	-8054
▁ہیوپا	-8055
▁یوسفی	-8056
▁یونٹی	-8057
▁یونین	-8058
اراےایس	-8059
سینیٹرا	-8060
نمائندہ	-8061
ومددگار	-8062
پیداوار	-8063
ڈیالوجی	-8064
گیرئینٹ	-8065
▁ئرلینڈ	-8066
▁اانسان	-8067
▁ابیاری	-8068
▁اجتہاد	-8069
▁ادارتی	-8070
▁ادھورا	-8071
▁ادھوری	-8072
▁ارضیات	-8073
▁ازالتہ	-8074
▁اسلامک	-8075
▁اسٹیشن	-8076
▁اسپینش	-8077
▁اسینشن	-8078
▁اصولوں	-8079
▁افریقی	-8080
▁افزائی	-8081
▁الائنس	-8082
▁الطائی	-8083
▁الٹائی	-8084
▁امتیاز	-8085
▁امرتسر	-8086
▁امہاری	-8087
▁اندھیر	-8088
▁انوکھا	-8089
▁اوراہل	-8090
▁اوربعض	-8091
▁اورفوج	-8092
▁اٹھادو	-8093
▁اپنانا	-8094
▁اچھلتا	-8095
▁ایندھن	-8096
▁ایڈیشن	-8097
▁بادشاہ	-8098
▁بتدریج	-8099
▁بحفاظت	-8100
▁برامدی	-8101
▁بنائیں	-8102
▁بنتاہے	-8103
▁بوچھاڑ	-8104
▁بٹورنے	-8105
▁بچگانہ	-8106
▁بڑھائی	-8107
▁بکریاں	-8108
▁بھلائی	-8109
▁بھگتنی	-8110
▁بیسیوں	-8111
▁تبادلہ	-8112
▁تدابیر	-8113
▁ترامیم	-8114
▁تلخیاں	-8115
▁جاتاہے	-8116
▁جامعات	-8117
▁جزوقتی	-8118
▁جولیان	-8119
▁جونیئر	-8120
▁جھلکتی	-8121
▁حدیبیہ	-8122
▁خدوخال	-8123
▁خوشیاں	-8124
▁دائروں	-8125
▁داریاں	-8126
▁درختوں	-8127
▁درستگی	-8128
▁دستگیر	-8129
▁دوستاں	-8130
▁دھماکے	-8131
▁دیجیئے	-8132
▁دیکھنی	-8133
▁راستوں	-8134
▁رجسٹرڈ	-8135
▁رسوائی	-8136
▁رفتاری	-8137
▁روزمرہ	-8138
▁زبانوں	-8139
▁زندانئ	-8140
▁سجھائی	-8141
▁سرداری	-8142
▁سلیماں	-8143
▁سمجھنی	-8144
▁سوئٹزر	-8145
▁سٹیڈیم	-8146
▁سکھانا	-8147
▁سینیٹر	-8148
▁سیکٹرز	-8149
▁سیکھنا	-8150
▁سےہوتی	-8151
▁شادیاں	-8152
▁شاپروں	-8153
▁شرمندہ	-8154
▁شعاعیں	-8155
▁طاقتوں	-8156
▁فارمرز	-8157
▁فراموش	-8158
▁فرسودہ	-8159
▁فرماتے	-8160
▁فرمانا	-8161
▁فلائنگ	-8162
▁قاتلوں	-8163
▁قطاروں	-8164
▁لائنیں	-8165
▁لاسکتا	-8166
▁لاچاری	-8167
▁لکھاری	-8168
▁مائیکل	-8169
▁مارٹین	-8170
▁مانگتی	-8171
▁مایوسی	-8172
▁مترادف	-8173
▁متنازع	-8174
▁مجرموں	-8175
▁محتسبو	-8176
▁مددملے	-8177
▁مستبقل	-8178
▁مشاہدے	-8179
▁مشینوں	-8180
▁معاہدہ	-8181
▁مفروضہ	-8182
▁مفکروں	-8183
▁ملیالم	-8184
▁ممبران	-8185
▁مکانوں	-8186
▁مہاراج	-8187
▁میخانے	-8188
▁مینڈیٹ	-8189
▁نااہلی	-8190
▁نادانئ	-8191
▁ناممکن	-8192
▁نبھایا	-8193
▁نظراتے	-8194
▁واردات	-8195
▁وجوہات	-8196
▁ومبلڈن	-8197
▁ٹرینوں	-8198
▁ٹیبلٹس	-8199
▁پارینہ	-8200
▁پتھروں	-8201
▁پرامید	-8202
▁پرتگال	-8203
▁پردودھ	-8204
▁پرفیکٹ	-8205
▁پروائی	-8206
▁پرکھتے	-8207
▁پریسٹن	-8208
▁پریقین	-8209
▁پشاورس	-8210
▁پوشیدہ	-8211
▁پولٹری	-8212
▁پگھلنا	-8213
▁پھربھی	-8214
▁پھینٹو	-8215
▁پہنچتی	-8216
▁پہنچنا	-8217
▁پہچانے	-8218
▁چاہییں	-8219
▁چیلنجز	-8220
▁ڈرائیو	-8221
▁ڈریسنگ	-8222
▁ڈکٹیشن	-8223
▁ڈیجیٹل	-8224
▁ڈیزائن	-8225
▁کادعوی	-8226
▁کارواں	-8227
▁کاندھے	-8228
▁کانگرس	-8229
▁کتابچہ	-8230
▁کرسکتا	-8231
▁کروانا	-8232
▁کروایا	-8233
▁کسانوں	-8234
▁کمینگی	-8235
▁کوششوں	-8236
▁کٹوائے	-8237
▁کٹوانے	-8238
▁گارانی	-8239
▁گانہیں	-8240
▁گردانی	-8241
▁گریباں	-8242
▁گمبھیر	-8243
▁گولیاں	-8244
▁گھومتی	-8245
▁گھومتے	-8246
▁گیندوں	-8247
▁ھوناچا	-8248
▁ہتھیار	-8249
▁ہمسایہ	-8250
▁ہنگامی	-8251
▁ہوجاتی	-8252
▁ہولڈنگ	-8253
▁ہونہار	-8254
▁ہوکرکی	-8255
▁یوشیدا	-8256
▁یکطرفہ	-8257
سرارزہری	-8258
پاکستانی	-8259
▁اتھارٹی	-8260
▁احتیاطی	-8261
▁استنبول	-8262
▁اسٹیمیٹ	-8263
▁اطلاعات	-8264
▁اطمینان	-8265
▁افواہوں	-8266
▁انتقامی	-8267
▁انٹرفیس	-8268
▁اورجہاد	-8269
▁اورفساد	-8270
▁اورلندن	-8271
▁اورمادر	-8272
▁اورنعرے	-8273
▁ایساکچھ	-8274
▁ایوشمان	-8275
▁برامدات	-8276
▁برمنگھم	-8277
▁بلتستان	-8278
▁بلندیوں	-8279
▁بندوقوں	-8280
▁بھونکتے	-8281
▁بیلاروس	-8282
▁تجوریوں	-8283
▁تحریکوں	-8284
▁تعلیمات	-8285
▁تفصیلات	-8286
▁تنظیموں	-8287
▁توفیقات	-8288
▁جارہاہے	-8289
▁جدیددور	-8290
▁جھانکنے	-8291
▁جھونکوں	-8292
▁خرابیاں	-8293
▁خوشبوئے	-8294
▁خوشحالی	-8295
▁دوردورہ	-8296
▁دوچیزیں	-8297
▁دھابیجی	-8298
▁رائیڈرز	-8299
▁رومانوی	-8300
▁رکاوٹوں	-8301
▁سنبھالے	-8302
▁سننھالو	-8303
▁سوسائٹی	-8304
▁سوناکشی	-8305
▁سویابین	-8306
▁سٹریلوی	-8307
▁سٹریلین	-8308
▁شکارہیں	-8309
▁شیوسینا	-8310
▁صدربننے	-8311
▁صفائیاں	-8312
▁صنعتکار	-8313
▁صوابدید	-8314
▁عبرتناک	-8315
▁فائنلسٹ	-8316
▁فائنڈنگ	-8317
▁فخرزمان	-8318
▁فراوانی	-8319
▁فلیپینو	-8320
▁فنکاروں	-8321
▁قرارداد	-8322
▁قیامتیں	-8323
▁مادھوری	-8324
▁مسکرانا	-8325
▁مصروفیت	-8326
▁مظلوموں	-8327
▁مقابلوں	-8328
▁مودودیت	-8329
▁مولبیوں	-8330
▁میکسیکن	-8331
▁نمائندہ	-8332
▁وصولیوں	-8333
▁ووکیشنل	-8334
▁پراپرٹی	-8335
▁پرچڑھار	-8336
▁پریمیئر	-8337
▁پڑھادیا	-8338
▁پھینٹنا	-8339
▁چیفشاہد	-8340
▁ڈومنیکا	-8341
▁کرتوتوں	-8342
▁کریباتی	-8343
▁کمائیاں	-8344
▁کولمبیا	-8345
▁کہانیوں	-8346
▁گریزمین	-8347
▁گریناڈا	-8348
▁گھبراتا	-8349
▁ہائیکنگ	-8350
▁ہوگاکیا	-8351
▁ہپناٹزم	-8352
▁ہےجومنہ	-8353
ئنایمباپے	-8354
ارڈومائیر	-8355
الطبیعیات	-8356
ربائیجانی	-8357
▁اجتماعیت	-8358
▁اراگونیز	-8359
▁ازبکستان	-8360
▁اسٹریائی	-8361
▁اسٹریلوی	-8362
▁افسوسناک	-8363
▁المسلمین	-8364
▁امیگریشن	-8365
▁ایئرلائن	-8366
▁ایکواڈور	-8367
▁بالواسطہ	-8368
▁بنگلادیش	-8369
▁تبدیلیوں	-8370
▁دشواریاں	-8371
▁دوسرےملک	-8372
▁دومقدمات	-8373
▁ریگولیشن	-8374
▁سبسکرائب	-8375
▁سیکریٹری	-8376
▁فلنٹریاں	-8377
▁قائداعظم	-8378
▁قازقستان	-8379
▁لوڈشیڈنگ	-8380
▁ماحولیات	-8381
▁ملائیشیا	-8382
▁موتیابند	-8383
▁میمنےاور	-8384
▁نادانستہ	-8385
▁ناپندیدہ	-8386
▁پارلیمان	-8387
▁پالیسیاں	-8388
▁پاکیستان	-8389
▁پراگندگی	-8390
▁پروفیشنل	-8391
▁چالیسواں	-8392
▁چالیسویں	-8393
▁چلیےشروع	-8394
▁ڈومیلینڈ	-8395
▁ڈیلپوٹرو	-8396
▁کامعاملہ	-8397
▁کرنیوالے	-8398
▁کھجیندرا	-8399
▁ہندووانہ	-8400
▁اختیارکیا	-8401
▁ادھےگھنٹے	-8402
▁الیگزینڈر	-8403
▁انسٹاگرام	-8404
▁ایڈجسٹمنٹ	-8405
▁ریفائنریز	-8406
▁ریکارڈٹوٹ	-8407
▁ریگولیٹری	-8408
▁سمجھانہیں	-8409
▁سیریزقرار	-8410
▁سینیٹائزر	-8411
▁سےپیداوار	-8412
▁فٹبالسیمی	-8413
▁قابلاجازت	-8414
▁مجازافراد	-8415
▁میںسالانہ	-8416
▁نادہندگان	-8417
▁وینٹیلیٹر	-8418
▁ٹرانسمیشن	-8419
▁پرخریداری	-8420
▁پروپیگنڈا	-8421
▁کاشتکاروں	-8422
▁کوکاروبار	-8423
▁ھوناچاھیے	-8424
▁ہمیںدونوں	-8425
▁ائیاراےایس	-8426
▁ائیڈیالوجی	-8427
▁اسٹریلیائی	-8428
▁اسٹریلیاکے	-8429
▁اضافہمہنگے	-8430
▁ریسگیرئینٹ	-8431
▁پرایکسپورٹ	-8432
▁کوراہنمائی	-8433
▁ہیئراسٹائل	-8434
▁یارومددگار	-8435
▁سرمایہکاروں	-8436
▁ٹیسٹپاکستان	-8437
▁ڈسمبرایجنسی	-8438
▁اورفسادوالوں	-8439
▁لاہورنمائندہ	-8440
▁لگائیںماہرین	-8441
▁لینارڈومائیر	-8442
▁پرچڑھارکھاہے	-8443
▁کررہےسینیٹرا	-8444
▁گیمزپاکستانی	-8445
▁چیمپئنایمباپے	-8446
▁مابعدالطبیعیات	-8447
ازو	-8448
اطف	-8449
الز	-8450
اڈل	-8451
اڑا	-8452
اگے	-8453
تعل	-8454
جدے	-8455
حصہ	-8456
دگا	-8457
رنط	-8458
رون	-8459
رپل	-8460
رکت	-8461
زاخ	-8462
فقہ	-8463
فیر	-8464
نرز	-8465
نیب	-8466
ومک	-8467
پتہ	-8468
پٹن	-8469
ڈرچ	-8470
کشی	-8471
گتا	-8472
ھڑے	-8473
ینز	-8474
▁ئل	-8475
▁ئہ	-8476
ئوٹا	-8477
ابتہ	-8478
اسیت	-8479
اقبت	-8480
الحق	-8481
انٹڈ	-8482
اونت	-8483
اپور	-8484
ایور	-8485
بادے	-8486
بارٹ	-8487
بریت	-8488
بھجن	-8489
جومی	-8490
رامی	-8491
راپی	-8492
ربڑھ	-8493
رہوج	-8494
ریحا	-8495
زائے	-8496
زدلی	-8497
سرال	-8498
سستی	-8499
نظ	-8500
احس	-8501
اشی	-8502
تیش	-8503
جتی	-8504
جیم	-8505
سیپ	-8506
صدر	-8507
صلہ	-8508
ظیر	-8509
عید	-8510
وئے	-8511
گتے	-8512
▁زن	-8513
▁ٹہ	-8514
ادھی	-8515
الوی	-8516
اناف	-8517
تاسی	-8518
ریسی	-8519
سطور	-8520
سیکا	-8521
شامل	-8522
شوگی	-8523
شہری	-8524
ضحیک	-8525
علوم	-8526
عموم	-8527
فتاح	-8528
فظات	-8529
فہوم	-8530
قائی	-8531
قیقہ	-8532
لائٹ	-8533
لاجو	-8534
لورر	-8535
مئیر	-8536
مدوح	-8537
معطل	-8538
مقصد	-8539
نازک	-8540
نجیر	-8541
ندیم	-8542
نگٹے	-8543
نیاں	-8544
وئیز	-8545
وارض	-8546
وایا	-8547
وراگ	-8548
ونیت	-8549
ویات	-8550
ٹلوں	-8551
ٹگری	-8552
ٹیفک	-8553
پھڑے	-8554
پہنچ	-8555
ڈئیم	-8556
ڑپیں	-8557
کارک	-8558
کردہ	-8559
کٹوی	-8560
کپڑے	-8561
ھیئے	-8562
ہارر	-8563
ہوئے	-8564
یاےا	-8565
یتیں	-8566
یلوپ	-8567
ینگز	-8568
▁الع	-8569
▁اٹک	-8570
▁باص	-8571
▁برم	-8572
▁جمے	-8573
▁حشر	-8574
▁خدش	-8575
▁خشک	-8576
▁خول	-8577
▁دوا	-8578
▁دوھ	-8579
▁رنو	-8580
▁رکو	-8581
▁سخن	-8582
▁سنے	-8583
▁سچن	-8584
▁سہا	-8585
▁شاز	-8586
▁شتر	-8587
▁شجر	-8588
▁شطر	-8589
▁شمع	-8590
▁طاق	-8591
▁عجب	-8592
▁عنب	-8593
▁عکس	-8594
▁فطر	-8595
▁فعل	-8596
▁فقہ	-8597
▁فیر	-8598
▁قبی	-8599
ئیل	-8600
اہب	-8601
اہو	-8602
تفا	-8603
شین	-8604
ضحی	-8605
لسی	-8606
لٹن	-8607
متو	-8608
مخت	-8609
نکے	-8610
وشر	-8611
ٹنے	-8612
چرڈ	-8613
کیف	-8614
اربی	-8615
انڈے	-8616
بارہ	-8617
دیتی	-8618
فاقت	-8619
مختص	-8620
ورین	-8621
پرنگ	-8622
▁اپس	-8623
▁حام	-8624
▁رہو	-8625
▁صلو	-8626
▁قضا	-8627
▁لاٹ	-8628
▁لٹا	-8629
▁لڑو	-8630
▁لڑک	-8631
▁لیو	-8632
▁معا	-8633
▁ملح	-8634
▁منش	-8635
▁نسب	-8636
▁نیچ	-8637
▁وصل	-8638
▁وضع	-8639
▁وضو	-8640
▁ویگ	-8641
▁ٹہل	-8642
▁چاد	-8643
▁چشم	-8644
▁چمپ	-8645
▁چڑا	-8646
▁چیت	-8647
▁ڈان	-8648
▁ڈھش	-8649
▁ڈیس	-8650
▁کچہ	-8651
▁گنت	-8652
▁گوج	-8653
▁ہمن	-8654
▁ہوک	-8655
▁ہیل	-8656
▁ہیم	-8657
ائینی	-8658
ائیڈل	-8659
ائیکہ	-8660
ائےگا	-8661
اتھال	-8662
احساس	-8663
اداری	-8664
اراڈو	-8665
الضحی	-8666
الیگز	-8667
امولا	-8668
امیدی	-8669
انافض	-8670
اندلی	-8671
اندگی	-8672
اندھی	-8673
انکار	-8674
اونٹس	-8675
اویئر	-8676
اڑدیا	-8677
اںمرد	-8678
اہےکپ	-8679
باتیت	-8680
برانہ	-8681
تیسری	-8682
زیریں	-8683
سیپاس	-8684
شاریہ	-8685
شاورت	-8686
ضرورت	-8687
ظرمیں	-8688
عمران	-8689
عنوان	-8690
فارمر	-8691
فاظتی	-8692
لیئرز	-8693
متوقع	-8694
منٹوں	-8695
نتائج	-8696
نظروں	-8697
نقریب	-8698
نوعیت	-8699
ئئ	-8700
بط	-8701
بنے	-8702
لنگ	-8703
ناد	-8704
ونپ	-8705
پتا	-8706
ڑیں	-8707
کاو	-8708
▁خش	-8709
▁شن	-8710
▁کڑ	-8711
ائلی	-8712
بلنگ	-8713
جدوں	-8714
▁اوب	-8715
▁ایت	-8716
▁بلب	-8717
▁بوم	-8718
▁دلا	-8719
▁سرک	-8720
▁شیر	-8721
▁ضبط	-8722
▁ضرت	-8723
▁لیج	-8724
▁محق	-8725
▁نیز	-8726
▁پام	-8727
▁کئئ	-8728
وئیلا	-8729
وارتی	-8730
وانگی	-8731
ورٹرز	-8732
وزارت	-8733
وشمار	-8734
ونٹین	-8735
ونپڑی	-8736
وکروں	-8737
ٹائٹل	-8738
ٹفکیٹ	-8739
پرندے	-8740
پولیس	-8741
ڈونلڈ	-8742
کرونی	-8743
کرگیا	-8744
کوسکی	-8745
گاہوں	-8746
گریکو	-8747
گیروں	-8748
ہرایا	-8749
ہوٹنگ	-8750
ہےہیں	-8751
یرقان	-8752
یرونا	-8753
یزنشل	-8754
یکٹسٹ	-8755
▁ابلے	-8756
▁اجتک	-8757
▁اجرت	-8758
▁اجمل	-8759
▁اراق	-8760
▁ارتک	-8761
▁ارتھ	-8762
▁الحم	-8763
▁النج	-8764
▁الوا	-8765
▁الوک	-8766
▁الٹی	-8767
▁الٹے	-8768
▁امیہ	-8769
▁انجم	-8770
▁انسو	-8771
▁انضم	-8772
▁اورٹ	-8773
▁اٹام	-8774
▁اٹکا	-8775
▁اپکی	-8776
▁اکھا	-8777
▁اگاہ	-8778
▁ایرک	-8779
▁ایما	-8780
▁ایمر	-8781
▁ایمز	-8782
▁بابا	-8783
▁بانس	-8784
▁بجتے	-8785
▁براو	-8786
▁برتر	-8787
▁برسر	-8788
▁برمد	-8789
▁برٹش	-8790
▁بسیں	-8791
▁بشار	-8792
▁بقرہ	-8793
▁بلوں	-8794
▁بوسن	-8795
▁بولو	-8796
▁بولٹ	-8797
▁بونا	-8798
▁بکاو	-8799
بش	-8800
جع	-8801
ٹج	-8802
گن	-8803
افق	-8804
عود	-8805
لوگ	-8806
لین	-8807
لیک	-8808
وٹر	-8809
ویٹ	-8810
ٹجک	-8811
ہائ	-8812
ہون	-8813
یتا	-8814
▁بش	-8815
▁رے	-8816
انجا	-8817
سیعی	-8818
صاری	-8819
عائد	-8820
لگتا	-8821
ماجی	-8822
وسفی	-8823
یادہ	-8824
▁افق	-8825
▁الر	-8826
▁برن	-8827
▁جوں	-8828
▁حفظ	-8829
▁شکا	-8830
▁پال	-8831
▁چوں	-8832
زیادہ	-8833
ستانی	-8834
لیکھا	-8835
وریٹی	-8836
▁بکری	-8837
▁بکنگ	-8838
▁بھال	-8839
▁بیٹں	-8840
▁تبدل	-8841
▁تجلی	-8842
▁تندر	-8843
▁تنکا	-8844
▁تورو	-8845
▁تھنک	-8846
▁جامع	-8847
▁ججوں	-8848
▁جشنع	-8849
▁جلوے	-8850
▁جمعہ	-8851
▁جملہ	-8852
▁جنبش	-8853
▁جنید	-8854
▁جوئی	-8855
▁جوڈو	-8856
▁جکڑے	-8857
▁جہنم	-8858
▁حاکم	-8859
▁حرام	-8860
▁حرفت	-8861
▁حقیق	-8862
▁حمزہ	-8863
▁حمیت	-8864
▁حیلہ	-8865
▁خراج	-8866
▁خراف	-8867
▁خروش	-8868
▁خطوں	-8869
▁خلوت	-8870
▁خمیر	-8871
▁داشت	-8872
▁داوچ	-8873
▁دلیر	-8874
▁دھوپ	-8875
▁دیگا	-8876
▁رئیل	-8877
▁رائی	-8878
▁راجی	-8879
▁راکٹ	-8880
▁راہد	-8881
▁رسما	-8882
▁رسید	-8883
▁رضیہ	-8884
▁رومز	-8885
▁روڑے	-8886
▁رچرڈ	-8887
▁رکنا	-8888
▁ریٹن	-8889
▁ریچل	-8890
▁زرور	-8891
▁زیرو	-8892
▁سادھ	-8893
▁ساقی	-8894
▁سانپ	-8895
▁ساٹھ	-8896
▁ستار	-8897
▁سجدے	-8898
▁سحری	-8899
خم	-8900
شع	-8901
صت	-8902
اکا	-8903
حور	-8904
درا	-8905
درے	-8906
علم	-8907
▁ھی	-8908
اندہ	-8909
دیتا	-8910
شعرا	-8911
شٹرا	-8912
فیلی	-8913
کینا	-8914
یکاز	-8915
▁بست	-8916
▁زار	-8917
▁فول	-8918
▁فوٹ	-8919
▁نہر	-8920
▁ولو	-8921
▁ٹھی	-8922
▁پرے	-8923
▁گھم	-8924
الدین	-8925
زستان	-8926
ٹرکشن	-8927
یورٹی	-8928
▁انھی	-8929
▁ایمن	-8930
▁برتا	-8931
▁تمنا	-8932
▁جاگا	-8933
▁خفیہ	-8934
▁سدرا	-8935
▁سرشت	-8936
▁سروج	-8937
▁سروش	-8938
▁سلوا	-8939
▁سنچر	-8940
▁سورو	-8941
▁سورہ	-8942
▁سولہ	-8943
▁سٹنٹ	-8944
▁سٹین	-8945
▁سپاہ	-8946
▁سپیڈ	-8947
▁سکھا	-8948
▁سہمی	-8949
▁سیرت	-8950
▁سیزر	-8951
▁سینٹ	-8952
▁شائر	-8953
▁شرمس	-8954
▁شقوں	-8955
▁شمیم	-8956
▁شناس	-8957
▁صلیب	-8958
▁ضیاع	-8959
▁طناز	-8960
▁عاطف	-8961
▁عامی	-8962
▁عزیر	-8963
▁عقلم	-8964
▁عقلی	-8965
▁عنصر	-8966
▁فارو	-8967
▁فاسو	-8968
▁فرصت	-8969
▁ففٹی	-8970
▁فلیگ	-8971
▁فوسل	-8972
▁فوٹو	-8973
▁فٹنس	-8974
▁قاضی	-8975
▁قرنط	-8976
▁قزاخ	-8977
▁قطار	-8978
▁قلعی	-8979
▁قلیل	-8980
▁لئیے	-8981
▁لائب	-8982
▁لائی	-8983
▁لرزش	-8984
▁لٹکے	-8985
▁لڑکے	-8986
▁لیوب	-8987
▁ماخو	-8988
▁ماوں	-8989
▁متحد	-8990
▁مرتد	-8991
▁مرجع	-8992
▁مروڑ	-8993
▁مستع	-8994
▁مسرت	-8995
▁مشرک	-8996
▁مصدا	-8997
▁مطلع	-8998
▁مفکر	-8999
ئچ	-9000
جس	-9001
عط	-9002
عف	-9003
لع	-9004
مز	-9005
وض	-9006
اسد	-9007
ایٹ	-9008
خدا	-9009
سیا	-9010
صود	-9011
فین	-9012
ناب	-9013
وٹس	-9014
چور	-9015
گئے	-9016
▁زڈ	-9017
▁سز	-9018
▁فخ	-9019
▁نب	-9020
اورہ	-9021
عطیہ	-9022
وروک	-9023
وسرے	-9024
چھوٹ	-9025
▁اان	-9026
▁احد	-9027
▁الج	-9028
▁جیل	-9029
▁دکر	-9030
▁ریت	-9031
▁سوں	-9032
▁ضعف	-9033
▁عوض	-9034
▁لوح	-9035
▁وزر	-9036
▁ٹنڈ	-9037
▁پمز	-9038
▁پیل	-9039
▁کاپ	-9040
چھوٹے	-9041
▁بویا	-9042
▁بیوی	-9043
▁تواب	-9044
▁جڑیں	-9045
▁حاسد	-9046
▁خرچہ	-9047
▁فیری	-9048
▁قاسم	-9049
▁مخاص	-9050
▁مقدس	-9051
▁مقیم	-9052
▁ملٹی	-9053
▁ملیر	-9054
▁ممبر	-9055
▁منیب	-9056
▁مکتب	-9057
▁میسا	-9058
▁میلی	-9059
▁ناصر	-9060
▁ندوی	-9061
▁نعرہ	-9062
▁نقصا	-9063
▁نوحہ	-9064
▁نپول	-9065
▁نڈال	-9066
▁نہاں	-9067
▁نہری	-9068
▁نیکی	-9069
▁وائٹ	-9070
▁وارن	-9071
▁وحشت	-9072
▁وقاص	-9073
▁وقفہ	-9074
▁وقوع	-9075
▁وینس	-9076
▁ٹاسک	-9077
▁ٹرپل	-9078
▁ٹنڈو	-9079
▁ٹویٹ	-9080
▁ٹکڑے	-9081
▁ٹیرا	-9082
▁ٹیلر	-9083
▁ٹینک	-9084
▁ٹیوٹ	-9085
▁پالک	-9086
▁پتوں	-9087
▁پختہ	-9088
▁پروم	-9089
▁پلیز	-9090
▁پچاس	-9091
▁پھاڑ	-9092
▁پھوٹ	-9093
▁پھکی	-9094
▁پہرا	-9095
▁پہنی	-9096
▁پیکج	-9097
▁چارپ	-9098
▁چراہ	-9099
حت	-9100
ڑپ	-9101
اتب	-9102
الج	-9103
تاط	-9104
حمد	-9105
خار	-9106
خرچ	-9107
روہ	-9108
سیل	-9109
فون	-9110
کلا	-9111
یفک	-9112
▁جٹ	-9113
▁سڈ	-9114
▁لل	-9115
▁پے	-9116
▁ڈن	-9117
▁ڈٹ	-9118
تایس	-9119
ریلی	-9120
عمال	-9121
▁اشت	-9122
▁تڑپ	-9123
▁ججی	-9124
▁جھی	-9125
▁خلف	-9126
▁زرا	-9127
▁شوخ	-9128
▁صفا	-9129
▁ٹوپ	-9130
▁کاب	-9131
▁گان	-9132
▁ہون	-9133
▁ہےع	-9134
اسکتے	-9135
لاموں	-9136
▁اکجا	-9137
▁بااس	-9138
▁رتھر	-9139
▁سران	-9140
▁سڈنی	-9141
▁فورت	-9142
▁متوس	-9143
▁مچھے	-9144
▁نالج	-9145
▁نفاق	-9146
▁نگٹے	-9147
▁وکلا	-9148
▁چوٹی	-9149
▁چکمہ	-9150
▁چھٹے	-9151
▁ڈبوں	-9152
▁ڈھوڑ	-9153
▁ڈیٹس	-9154
▁ڈیڑھ	-9155
▁کالے	-9156
▁کامل	-9157
▁کاٹن	-9158
▁کباڑ	-9159
▁کبری	-9160
▁کشتی	-9161
▁کعبہ	-9162
▁کلئے	-9163
▁کلفٹ	-9164
▁کملا	-9165
▁کمپی	-9166
▁کواڑ	-9167
▁کوچز	-9168
▁کویٹ	-9169
▁کڑوی	-9170
▁کھرب	-9171
▁کھوج	-9172
▁کھوں	-9173
▁کھیپ	-9174
▁کہاب	-9175
▁کیئے	-9176
▁کیپس	-9177
▁کیچک	-9178
▁کےمس	-9179
▁گاہک	-9180
▁گراف	-9181
▁گلین	-9182
▁گندھ	-9183
▁گنوا	-9184
▁گنیز	-9185
▁گوئچ	-9186
▁گواڈ	-9187
▁گہرے	-9188
▁گیرز	-9189
▁گینگ	-9190
▁ھمزہ	-9191
▁ھوگا	-9192
▁ہارڈ	-9193
▁ہفتہ	-9194
▁ہلاک	-9195
▁ہلتے	-9196
▁ہلکا	-9197
▁ہمین	-9198
▁ہنگی	-9199
اخر	-9200
الح	-9201
ایک	-9202
جام	-9203
ریس	-9204
پال	-9205
ھال	-9206
ھنے	-9207
یلم	-9208
▁ید	-9209
اتیں	-9210
بخود	-9211
دانی	-9212
رمیم	-9213
ومنٹ	-9214
پبلک	-9215
کلام	-9216
▁توپ	-9217
▁راف	-9218
▁ریش	-9219
▁لند	-9220
ائزنگ	-9221
نیلٹی	-9222
ولیشن	-9223
کیلئے	-9224
یسروں	-9225
▁اسام	-9226
▁بلال	-9227
▁بپھر	-9228
▁تھوک	-9229
▁حریک	-9230
▁روٹھ	-9231
▁زیدی	-9232
▁سکنا	-9233
▁سکوں	-9234
▁صالح	-9235
▁صوتی	-9236
▁فرحت	-9237
▁ویری	-9238
▁ڈیوس	-9239
▁گانے	-9240
▁گرتے	-9241
▁ہولی	-9242
▁ہوہے	-9243
▁ہیرڈ	-9244
▁ہیلی	-9245
▁ہیٹی	-9246
▁ینگس	-9247
▁یوکل	-9248
▁یکسر	-9249
▁یکسو	-9250
ارہاہے	-9251
افادیت	-9252
افتتاح	-9253
انافضل	-9254
انونیت	-9255
بانسری	-9256
باکمال	-9257
بھارتی	-9258
ختونوں	-9259
رامیری	-9260
ستعمال	-9261
سونالی	-9262
سونامی	-9263
سٹریشن	-9264
شہریوں	-9265
لاجواب	-9266
میخانے	-9267
میںیوم	-9268
ندرگاہ	-9269
ورٹائم	-9270
ورینکا	-9271
وزگاری	-9272
وسفیان	-9273
ٹریٹجک	-9274
ٹیفکیٹ	-9275
ٹیفیشل	-9276
پیٹرول	-9277
ڈولینڈ	-9278
کاریوں	-9279
کٹویٹی	-9280
گریباں	-9281
یادگار	-9282
یاےایف	-9283
یسٹروک	-9284
یوسیٹس	-9285
▁ابشار	-9286
▁ابصار	-9287
▁اتریں	-9288
▁اجمال	-9289
▁اخلاص	-9290
▁اسماع	-9291
▁اسپنر	-9292
▁اسکتا	-9293
▁اسکیں	-9294
▁اطفال	-9295
▁اطلاع	-9296
▁افکار	-9297
▁افیسر	-9298
▁افیکٹ	-9299
عا	-9300
ارن	-9301
جھا	-9302
خرا	-9303
دیر	-9304
رفی	-9305
پٹس	-9306
یار	-9307
ینک	-9308
اریک	-9309
افیا	-9310
ربگی	-9311
رہوں	-9312
سمبر	-9313
شاہی	-9314
فریہ	-9315
لیڈر	-9316
ٹیول	-9317
ھانے	-9318
▁ادق	-9319
▁بیخ	-9320
▁رعد	-9321
▁رقی	-9322
▁مائ	-9323
▁نیم	-9324
▁پیج	-9325
▁گشت	-9326
▁ہزا	-9327
دانوں	-9328
کہانی	-9329
▁ابرو	-9330
▁اٹیک	-9331
▁اپرو	-9332
▁اچرو	-9333
▁اچکے	-9334
▁بھئی	-9335
▁تھیم	-9336
▁جایا	-9337
▁جبلی	-9338
▁جوڑی	-9339
▁جھلت	-9340
▁رقیب	-9341
▁سودا	-9342
▁صحرا	-9343
▁قلعے	-9344
▁لگام	-9345
▁مدعا	-9346
▁مودت	-9347
▁پیتا	-9348
▁پینا	-9349
▁پیوں	-9350
▁چاہا	-9351
▁کھود	-9352
▁گندی	-9353
اسمجھا	-9354
انوراگ	-9355
▁اقرار	-9356
▁اقربا	-9357
▁الارض	-9358
▁التجا	-9359
▁التحص	-9360
▁الحسن	-9361
▁الدھر	-9362
▁الینڈ	-9363
▁امامت	-9364
▁امداد	-9365
▁امدنی	-9366
▁امرال	-9367
▁امیزی	-9368
▁انبیا	-9369
▁انجین	-9370
▁انڈوں	-9371
▁انگور	-9372
▁اوباش	-9373
▁اورجن	-9374
▁اورسپ	-9375
▁اورکر	-9376
▁اوزار	-9377
▁اٹالو	-9378
▁اٹامک	-9379
▁اپروچ	-9380
▁اپریل	-9381
▁اکتفا	-9382
▁اکھٹے	-9383
▁اہلیہ	-9384
▁ایدھی	-9385
▁اینمک	-9386
▁بائیو	-9387
▁بارود	-9388
▁باسکی	-9389
▁بانٹی	-9390
▁بتانا	-9391
▁بجاتا	-9392
▁بخشنے	-9393
▁بدلتے	-9394
▁براوو	-9395
▁بردار	-9396
▁برلاس	-9397
▁برمدی	-9398
▁بریسٹ	-9399
انب	-9400
جوع	-9401
ختم	-9402
نان	-9403
نڈز	-9404
▁تپ	-9405
ارتے	-9406
رانڈ	-9407
ریزا	-9408
عدگی	-9409
لیکن	-9410
چروں	-9411
یکوڈ	-9412
▁اکا	-9413
▁برگ	-9414
▁تاح	-9415
▁سلی	-9416
▁سکت	-9417
▁سیف	-9418
▁ملہ	-9419
▁میٹ	-9420
▁نوع	-9421
▁نوے	-9422
▁کنا	-9423
▁گرہ	-9424
▁گیٹ	-9425
▁اسلو	-9426
▁بگلا	-9427
▁بھیگ	-9428
▁جزاک	-9429
▁درود	-9430
▁دوسر	-9431
▁سپین	-9432
▁سیون	-9433
▁عددی	-9434
▁عمیر	-9435
▁عہدہ	-9436
▁لیٹر	-9437
▁مینا	-9438
▁ندار	-9439
▁نصیح	-9440
▁نظار	-9441
▁پھرا	-9442
▁پیدل	-9443
▁چھلے	-9444
▁کواس	-9445
▁کودو	-9446
▁کیرب	-9447
یرکوئی	-9448
▁ارتھر	-9449
▁بجانب	-9450
▁بریٹن	-9451
▁بزدلی	-9452
▁بطخیں	-9453
▁بلاول	-9454
▁بلندی	-9455
▁بلوچی	-9456
▁بلڈنگ	-9457
▁بناوٹ	-9458
▁بورنگ	-9459
▁بوریت	-9460
▁بولان	-9461
▁بولتی	-9462
▁بولنگ	-9463
▁بولیو	-9464
▁بچھیں	-9465
▁بہائے	-9466
▁بہانے	-9467
▁بہلتا	-9468
▁بیلنس	-9469
▁بیمبا	-9470
▁بیٹوں	-9471
▁بیٹںگ	-9472
▁تدبیر	-9473
▁تدوین	-9474
▁ترازو	-9475
▁ترمیم	-9476
▁تشنگی	-9477
▁تصرفی	-9478
▁تضحیک	-9479
▁تعیلم	-9480
▁تفتیش	-9481
▁تفریح	-9482
▁تقابل	-9483
▁تقدیر	-9484
▁تماشہ	-9485
▁تنویر	-9486
▁تواتر	-9487
▁تکفیر	-9488
▁تیرنا	-9489
▁تیمور	-9490
▁تینوں	-9491
▁جامعہ	-9492
▁جانتی	-9493
▁جسطرح	-9494
▁جسوال	-9495
▁جفاخو	-9496
▁جلسوں	-9497
▁جملوں	-9498
▁جوائن	-9499
اصح	-9500
طفی	-9501
▁اڈ	-9502
▁ضد	-9503
▁نف	-9504
ئیفا	-9505
اتھا	-9506
ارہا	-9507
جہاں	-9508
حانہ	-9509
ریری	-9510
وہیں	-9511
▁بلڈ	-9512
▁جاے	-9513
▁راس	-9514
▁سمٹ	-9515
▁شیو	-9516
▁ضرب	-9517
▁لدے	-9518
▁نشر	-9519
▁ورد	-9520
▁ورن	-9521
▁ورک	-9522
▁پڑگ	-9523
▁ڈوب	-9524
▁ڈھل	-9525
▁کاس	-9526
امریک	-9527
داروں	-9528
ینیڈا	-9529
▁ازار	-9530
▁اوبر	-9531
▁ایکڑ	-9532
▁باڑی	-9533
▁بندو	-9534
▁جوشی	-9535
▁جہتی	-9536
▁جیمی	-9537
▁جینا	-9538
▁دیوب	-9539
▁رسنا	-9540
▁زباں	-9541
▁صائم	-9542
▁قداں	-9543
▁قرین	-9544
▁لکڑی	-9545
▁مصری	-9546
▁منگل	-9547
▁ناتھ	-9548
▁ناصح	-9549
▁وردی	-9550
▁ٹنگا	-9551
▁پردے	-9552
▁پڑنے	-9553
▁کپاس	-9554
اتےہیں	-9555
امریکہ	-9556
▁اندرا	-9557
▁اورجس	-9558
▁بروری	-9559
▁جگایا	-9560
▁جھنڈے	-9561
▁جھٹکے	-9562
▁حاملہ	-9563
▁حماقت	-9564
▁حیائی	-9565
▁خامشی	-9566
▁خبریت	-9567
▁خدانہ	-9568
▁خدشات	-9569
▁خرینے	-9570
▁خسارے	-9571
▁خشوگی	-9572
▁خطرات	-9573
▁خلیجی	-9574
▁خواجہ	-9575
▁داماد	-9576
▁دانشم	-9577
▁درازی	-9578
▁دربار	-9579
▁دسترس	-9580
▁دسمبر	-9581
▁دمدار	-9582
▁دوانے	-9583
▁دوراں	-9584
▁دوروں	-9585
▁دوھری	-9586
▁دھاوا	-9587
▁دھوکہ	-9588
▁دیتیں	-9589
▁دیجیے	-9590
▁دیدار	-9591
▁دیوار	-9592
▁راجرز	-9593
▁راجیو	-9594
▁رافیل	-9595
▁رحمان	-9596
▁رسیدہ	-9597
▁رعایت	-9598
▁رفاقت	-9599
وط	-9600
بلو	-9601
نڈا	-9602
ونگ	-9603
▁ٹم	-9604
پائل	-9605
ینگے	-9606
▁اہو	-9607
▁حرب	-9608
▁حسد	-9609
▁دئے	-9610
▁فرش	-9611
▁قفس	-9612
▁قیو	-9613
▁محو	-9614
▁پنہ	-9615
▁پکا	-9616
▁چرب	-9617
▁کلی	-9618
ائیکی	-9619
یکیشن	-9620
▁الفت	-9621
▁اکمل	-9622
▁اگست	-9623
▁اگیا	-9624
▁بایو	-9625
▁بچنے	-9626
▁ترجم	-9627
▁تعطل	-9628
▁جیلی	-9629
▁جینے	-9630
▁خطوط	-9631
▁خوشا	-9632
▁رونق	-9633
▁روکے	-9634
▁ریلی	-9635
▁سالن	-9636
▁سنیں	-9637
▁سوتی	-9638
▁فرنس	-9639
▁فریز	-9640
▁فلمز	-9641
▁مورو	-9642
▁پاکس	-9643
▁پبلو	-9644
▁پڑھے	-9645
▁چلئے	-9646
▁چھاج	-9647
▁کاٹا	-9648
▁کلیم	-9649
▁کوچے	-9650
▁کیوی	-9651
▁گرنا	-9652
انٹالو	-9653
پائلٹس	-9654
▁انسٹی	-9655
▁بتاتی	-9656
▁برستے	-9657
▁تراشا	-9658
▁تماشے	-9659
▁جنموں	-9660
▁جنگیں	-9661
▁دائیں	-9662
▁رنویر	-9663
▁رنگنا	-9664
▁رنگوں	-9665
▁رنگین	-9666
▁رنگیں	-9667
▁رولنگ	-9668
▁روٹین	-9669
▁رکھنی	-9670
▁رہائش	-9671
▁زایور	-9672
▁زخموں	-9673
▁زریعے	-9674
▁زنجیر	-9675
▁سائکل	-9676
▁ساروں	-9677
▁ساماں	-9678
▁ساموا	-9679
▁ستاتی	-9680
▁سرفنگ	-9681
▁سرکار	-9682
▁سسرال	-9683
▁سلگتے	-9684
▁سلیمی	-9685
▁سمارٹ	-9686
▁سمجھی	-9687
▁سناتی	-9688
▁سنادی	-9689
▁سناہے	-9690
▁سنایا	-9691
▁سنیئے	-9692
▁سنیما	-9693
▁سنیچر	-9694
▁سوچیے	-9695
▁سویرے	-9696
▁سٹنٹس	-9697
▁سپیشل	-9698
▁سکھوں	-9699
ایب	-9700
وتہ	-9701
سکتا	-9702
سکتی	-9703
سکون	-9704
سیئن	-9705
▁بحر	-9706
▁بسر	-9707
▁بٹس	-9708
▁سرچ	-9709
▁فوڈ	-9710
سازوں	-9711
▁اویس	-9712
▁بسوں	-9713
▁بینی	-9714
▁بیٹس	-9715
▁حائل	-9716
▁درمد	-9717
▁دھکا	-9718
▁فوکر	-9719
▁لاتی	-9720
▁منڈی	-9721
▁مکھی	-9722
▁مینز	-9723
▁مینی	-9724
▁پالش	-9725
▁کردو	-9726
▁اسناد	-9727
▁اعوام	-9728
▁بہنوں	-9729
▁تاروں	-9730
▁دلاتی	-9731
▁سیلاب	-9732
▁سیناٹ	-9733
▁سینسر	-9734
▁سیکرٹ	-9735
▁سےچور	-9736
▁شاموں	-9737
▁شرابی	-9738
▁ششانک	-9739
▁شطرنج	-9740
▁شمشاد	-9741
▁صحارا	-9742
▁صحارن	-9743
▁صدیوں	-9744
▁صریحا	-9745
▁صفحات	-9746
▁صلیبی	-9747
▁ضابطہ	-9748
▁ضابطے	-9749
▁طبقوں	-9750
▁طفیلی	-9751
▁طورخم	-9752
▁طورپہ	-9753
▁عاقبت	-9754
▁عجائب	-9755
▁علاقی	-9756
▁عوارض	-9757
▁فارسی	-9758
▁فخریہ	-9759
▁فردوس	-9760
▁فروری	-9761
▁فریبی	-9762
▁فرینڈ	-9763
▁فلحال	-9764
▁فلسفے	-9765
▁فورتھ	-9766
▁فینیش	-9767
▁فیڈنگ	-9768
▁قاعدہ	-9769
▁قرضوں	-9770
▁قسمتی	-9771
▁لائسن	-9772
▁لائیے	-9773
▁لاشیں	-9774
▁لاپتہ	-9775
▁لاچار	-9776
▁لبادہ	-9777
▁لبادے	-9778
▁لندنس	-9779
▁لٹانے	-9780
▁لکھتی	-9781
▁لکھوں	-9782
▁لکھیں	-9783
▁لیتیں	-9784
▁لیوبک	-9785
▁مادیت	-9786
▁ماشیم	-9787
▁ماندہ	-9788
▁مبادل	-9789
▁مبینہ	-9790
▁متحرک	-9791
▁متوسط	-9792
▁محافظ	-9793
▁محتاط	-9794
▁مخدوم	-9795
▁مدنظر	-9796
▁مراتب	-9797
▁مربوط	-9798
▁مروجہ	-9799
▁مسالا	-9800
▁مسحور	-9801
▁مسعود	-9802
▁مسیحا	-9803
▁مشتعل	-9804
▁مشروط	-9805
▁مشینی	-9806
▁مصداق	-9807
▁مصطفی	-9808
▁مصوری	-9809
▁مفلسی	-9810
▁مقصود	-9811
▁مقولہ	-9812
▁ملامت	-9813
▁ملایا	-9814
▁ملحوظ	-9815
▁ملزکی	-9816
▁ملنگا	-9817
▁ملکیت	-9818
▁ممدوح	-9819
▁منصبی	-9820
▁منٹوں	-9821
▁موقعہ	-9822
▁موڈرچ	-9823
▁مچلتا	-9824
▁مینڈک	-9825
▁میڈلز	-9826
▁ناشتہ	-9827
▁نالوں	-9828
▁ناپاک	-9829
▁ناچنے	-9830
▁نجومی	-9831
▁ندارد	-9832
▁نرالی	-9833
▁نسبتا	-9834
▁نظامی	-9835
▁نفاست	-9836
▁نمائی	-9837
▁نوالہ	-9838
▁نوٹسز	-9839
▁نوٹوں	-9840
▁نکلیں	-9841
▁نگاری	-9842
▁نہریں	-9843
▁نےمنی	-9844
▁وانٹڈ	-9845
▁واٹسن	-9846
▁وحرکت	-9847
▁وخوار	-9848
▁ولولہ	-9849
▁وکٹوں	-9850
▁ویراں	-9851
▁وینٹی	-9852
▁ویٹرن	-9853
▁ٹرائی	-9854
▁ٹونٹی	-9855
▁ٹوکیو	-9856
▁ٹکراو	-9857
▁ٹھاکر	-9858
▁ٹھہری	-9859
▁پاگئے	-9860
▁پرخرچ	-9861
▁پرعمل	-9862
▁پروری	-9863
▁پنہاں	-9864
▁پٹھان	-9865
▁پڑگئی	-9866
▁پڑھیے	-9867
▁پکوان	-9868
▁پھلوں	-9869
▁پھیلی	-9870
▁پیاری	-9871
▁پیالے	-9872
▁پیرہن	-9873
▁پیسکو	-9874
▁پیمرا	-9875
▁پیٹرل	-9876
▁پیکار	-9877
▁چائیں	-9878
▁چالاک	-9879
▁چاہیں	-9880
▁چمکتی	-9881
▁چنائو	-9882
▁چڑھنے	-9883
▁چھائی	-9884
▁چھائے	-9885
▁چھاپہ	-9886
▁چھلنی	-9887
▁چھوٹو	-9888
▁چھڑکا	-9889
▁چھکوں	-9890
▁چیخنے	-9891
▁چیخیں	-9892
▁ڈائجو	-9893
▁ڈارمے	-9894
▁ڈانسز	-9895
▁ڈسپلن	-9896
▁ڈومین	-9897
▁ڈھشوم	-9898
▁ڈیسکا	-9899
▁ڈیوین	-9900
▁ڈیپتھ	-9901
▁کاحصہ	-9902
▁کارگل	-9903
▁کاریں	-9904
▁کانام	-9905
▁کانٹی	-9906
▁کراتی	-9907
▁کرجیت	-9908
▁کرنیں	-9909
▁کرگئے	-9910
▁کریگی	-9911
▁کسٹمز	-9912
▁کشتنی	-9913
▁کشکول	-9914
▁کفران	-9915
▁کلیاں	-9916
▁کمالہ	-9917
▁کمبلے	-9918
▁کنسول	-9919
▁کنفرم	-9920
▁کنوری	-9921
▁کنٹری	-9922
▁کواگے	-9923
▁کورسز	-9924
▁کوشاں	-9925
▁کوچنگ	-9926
▁کٹوتی	-9927
▁کچہری	-9928
▁کھارے	-9929
▁کھلوا	-9930
▁کھٹکا	-9931
▁کھیتی	-9932
▁کیاہم	-9933
▁کیاہے	-9934
▁گاہیں	-9935
▁گرامی	-9936
▁گربگی	-9937
▁گردوں	-9938
▁گروپس	-9939
▁گروہی	-9940
▁گرینڈ	-9941
▁گزارے	-9942
▁گزرتا	-9943
▁گفتنی	-9944
▁گلیاں	-9945
▁گلیوں	-9946
▁گنجان	-9947
▁گنوار	-9948
▁گونجی	-9949
▁گیسوں	-9950
▁گینڈا	-9951
▁گینگز	-9952
▁ھمارے	-9953
▁ہاشمی	-9954
▁ہزیمت	-9955
▁ہملٹن	-9956
▁ہمنوا	-9957
▁ہموار	-9958
▁ہوبھی	-9959
▁ہونگی	-9960
▁ہڈیوں	-9961
▁ہیومن	-9962
▁ہےاور	-9963
▁ہےصدر	-9964
▁یاحاد	-9965
▁یاوری	-9966
▁یوسین	-9967
▁یونہی	-9968
برطانیہ	-9969
شاریہاں	-9970
ویسٹمنٹ	-9971
کامفہوم	-9972
یرائینی	-9973
▁اجتناب	-9974
▁اجزائے	-9975
▁احترام	-9976
▁ادویات	-9977
▁اراربی	-9978
▁استعما	-9979
▁اسلئیے	-9980
▁اسلوبی	-9981
▁اسودگی	-9982
▁اسٹریا	-9983
▁اسپتال	-9984
▁اسپنرز	-9985
▁اسکینگ	-9986
▁اشاروں	-9987
▁اشتعال	-9988
▁اشتہار	-9989
▁اطالوی	-9990
▁البرٹو	-9991
▁الحمرا	-9992
▁السطور	-9993
▁الشعرا	-9994
▁النجوم	-9995
▁الواقع	-9996
▁الہامی	-9997
▁امپائر	-9998
▁امیدوں	-9999
▁امیروں	-10000
▁انتہائ	-10001
▁انجکشن	-10002
▁انسداد	-10003
▁انصاری	-10004
▁انضمام	-10005
▁انٹیلی	-10006
▁انڈیکس	-10007
▁انگیکا	-10008
▁اوادھی	-10009
▁اوراسی	-10010
▁اوربڑا	-10011
▁اورملک	-10012
▁اورنیب	-10013
▁اورپھر	-10014
▁اوریوں	-10015
▁اوپنرز	-10016
▁اوپننگ	-10017
▁اٹھائی	-10018
▁اٹھارہ	-10019
▁ایجنٹس	-10020
▁ایزنشل	-10021
▁ایشیئن	-10022
▁ایمارا	-10023
▁باشعور	-10024
▁بالاخر	-10025
▁باورچی	-10026
▁باہرلے	-10027
▁بتائیں	-10028
▁براعظم	-10029
▁برتائو	-10030
▁برمدات	-10031
▁برکینا	-10032
▁بمباری	-10033
▁بڑھاتا	-10034
▁بڑھاپا	-10035
▁بھانجا	-10036
▁بھاگتے	-10037
▁بھولنا	-10038
▁بھونڈا	-10039
▁بھیجیں	-10040
▁بہادری	-10041
▁بہرکیف	-10042
▁بیانات	-10043
▁بیسبال	-10044
▁بیلجیم	-10045
▁بیندرے	-10046
▁بینظیر	-10047
▁بیٹیوں	-10048
▁بیچارہ	-10049
▁تاناکا	-10050
▁تجربات	-10051
▁تحاریک	-10052
▁تخفظات	-10053
▁تدریجا	-10054
▁ترکیبی	-10055
▁تمھاری	-10056
▁تمہارر	-10057
▁تنازعہ	-10058
▁توسیعی	-10059
▁توقائد	-10060
▁تھراپی	-10061
▁تھمانے	-10062
▁تھیوری	-10063
▁تہمتیں	-10064
▁تیموری	-10065
▁جائیکہ	-10066
▁جائیگا	-10067
▁جائےجو	-10068
▁جاسکیں	-10069
▁جانشین	-10070
▁جعفریہ	-10071
▁جلدختم	-10072
▁جوابوں	-10073
▁جوکھوں	-10074
▁جھونکا	-10075
▁جھڑپیں	-10076
▁جیرونا	-10077
▁حامیوں	-10078
▁حساسیت	-10079
▁حفاظتی	-10080
▁حقیقتا	-10081
▁حیرانئ	-10082
▁خبردار	-10083
▁خرافات	-10084
▁خلفائے	-10085
▁خودکار	-10086
▁خیروشر	-10087
▁دارہیں	-10088
▁داریوں	-10089
▁درامدی	-10090
▁دردانہ	-10091
▁درمدات	-10092
▁دریافت	-10093
▁دعوتوں	-10094
▁دلہنوں	-10095
▁دوگریب	-10096
▁دکھاتی	-10097
▁دکھاتے	-10098
▁دہرائے	-10099
▁دیاگیا	-10100
▁راشدین	-10101
▁رسیدیں	-10102
▁رنجیدہ	-10103
▁روانگی	-10104
▁رولینڈ	-10105
▁رومانی	-10106
▁رونگٹے	-10107
▁روٹیاں	-10108
▁رکھیئے	-10109
▁ریسلنگ	-10110
▁ریفنڈز	-10111
▁ریٹننگ	-10112
▁ریپبلک	-10113
▁زاویئر	-10114
▁زبانیں	-10115
▁ساحلوں	-10116
▁سامانی	-10117
▁سبزیوں	-10118
▁سردیوں	-10119
▁سرنگوں	-10120
▁سرینگر	-10121
▁سزائیں	-10122
▁سلطانہ	-10123
▁سماوات	-10124
▁سمجھای	-10125
▁سمجھتی	-10126
▁سمجھیے	-10127
▁سنائیو	-10128
▁سنگیتا	-10129
▁سورونو	-10130
▁سونامی	-10131
▁سونپتا	-10132
▁سوڈئیم	-10133
▁سٹالوں	-10134
▁سکسیکا	-10135
▁سکھاتا	-10136
▁سکھانے	-10137
▁سکینڈل	-10138
▁سگاروں	-10139
▁سیئوٹا	-10140
▁سیاروں	-10141
▁سیرنیا	-10142
▁سیمسنگ	-10143
▁سینڈوچ	-10144
▁سےشامل	-10145
▁شعاعوں	-10146
▁شوکافی	-10147
▁شکایات	-10148
▁عزیزوں	-10149
▁عقلمند	-10150
▁عنبرین	-10151
▁عنقریب	-10152
▁عورتیں	-10153
▁فامولا	-10154
▁فرینزی	-10155
▁فسادات	-10156
▁فنتاسی	-10157
▁فیریرا	-10158
▁فیکیشن	-10159
▁قبائلی	-10160
▁قطاریں	-10161
▁لاجواب	-10162
▁لازمین	-10163
▁لاشعور	-10164
▁لفظیات	-10165
▁لڑکیاں	-10166
▁لیجئیے	-10167
▁لیڈروں	-10168
▁ماہانہ	-10169
▁محاربہ	-10170
▁محرکات	-10171
▁محفوظہ	-10172
▁محققین	-10173
▁مخاصمت	-10174
▁مزیدار	-10175
▁مستزاد	-10176
▁مستعفی	-10177
▁مسلماں	-10178
▁مشاورت	-10179
▁مصالحت	-10180
▁مطابقت	-10181
▁معاونت	-10182
▁مفاہمت	-10183
▁مفروضے	-10184
▁منقسمہ	-10185
▁منوایا	-10186
▁موجدوں	-10187
▁موضوعی	-10188
▁موومنٹ	-10189
▁موٹاپے	-10190
▁مکالمے	-10191
▁میلیلا	-10192
▁میںخیر	-10193
▁نباتات	-10194
▁نجکاری	-10195
▁نظریات	-10196
▁نمائشی	-10197
▁نمٹائے	-10198
▁نوازنے	-10199
▁نوکیلے	-10200
▁نپولین	-10201
▁نچوڑیں	-10202
▁نکالتا	-10203
▁نکالیں	-10204
▁نہیںلی	-10205
▁نیندیں	-10206
▁واجبات	-10207
▁واقعتا	-10208
▁واقفان	-10209
▁وسماجی	-10210
▁وہاللہ	-10211
▁ویرانئ	-10212
▁ویگنوں	-10213
▁ٹریلین	-10214
▁ٹرینڈز	-10215
▁ٹرینیں	-10216
▁ٹریڈنگ	-10217
▁ٹوٹنہم	-10218
▁ٹھہرتا	-10219
▁ٹیفکیٹ	-10220
▁ٹیچروں	-10221
▁پارنیل	-10222
▁پانیوں	-10223
▁پاکستا	-10224
▁پاگلوں	-10225
▁پرسکون	-10226
▁پرفارم	-10227
▁پرکھنے	-10228
▁پریشنل	-10229
▁پوچھنا	-10230
▁پوچھنے	-10231
▁پوچھیے	-10232
▁پڑسکتا	-10233
▁پڑھائی	-10234
▁پڑھاتے	-10235
▁پڑہائی	-10236
▁پکائیں	-10237
▁پہنچتا	-10238
▁پیسیفک	-10239
▁پیشہور	-10240
▁چادروں	-10241
▁چاندنی	-10242
▁چاولوں	-10243
▁چاھیئے	-10244
▁چاہیئے	-10245
▁چلائیں	-10246
▁چلاگیا	-10247
▁چلتاہے	-10248
▁چمپئنز	-10249
▁چولہوں	-10250
▁چھٹیوں	-10251
▁چھپانے	-10252
▁چھپایا	-10253
▁ڈرائنگ	-10254
▁کابینہ	-10255
▁کارساز	-10256
▁کارندہ	-10257
▁کارینو	-10258
▁کاسٹنگ	-10259
▁کاماڈل	-10260
▁کبیرکے	-10261
▁کردیئے	-10262
▁کرنہیں	-10263
▁کرنےکی	-10264
▁کروائی	-10265
▁کرگئیں	-10266
▁کریکٹر	-10267
▁کلچرکو	-10268
▁کلہاڑی	-10269
▁کمنٹری	-10270
▁کنایوں	-10271
▁کنوارا	-10272
▁کنکشنز	-10273
▁کوئلوں	-10274
▁کوجائز	-10275
▁کوعطیہ	-10276
▁کولپاک	-10277
▁کپروما	-10278
▁کھانسی	-10279
▁کھیلوں	-10280
▁کھینچا	-10281
▁کیابنے	-10282
▁کیاجات	-10283
▁کیمرون	-10284
▁کیٹگری	-10285
▁کیپسول	-10286
▁کےقریب	-10287
▁گارسیا	-10288
▁گاندھی	-10289
▁گاہکوں	-10290
▁گراونڈ	-10291
▁گرجدار	-10292
▁گرمیوں	-10293
▁گروہوں	-10294
▁گزارنا	-10295
▁گزاروں	-10296
▁گناہوں	-10297
▁گوادرب	-10298
▁گونجتی	-10299
▁گھمائے	-10300
▁گھنٹوں	-10301
▁گہرائی	-10302
▁گیااور	-10303
▁گیمبیا	-10304
▁ہربھجن	-10305
▁ہمدردی	-10306
▁ہندومت	-10307
▁ہوٹلوں	-10308
▁ہوکمال	-10309
▁ہوگئیں	-10310
▁یوئیفا	-10311
الیگزنڈر	-10312
اہےکپتان	-10313
وروکریسی	-10314
ڈونلڈینگ	-10315
کارکردگی	-10316
کرونیشیا	-10317
یرقانونی	-10318
ینڈلناصر	-10319
▁اانکشاف	-10320
▁ابادنیو	-10321
▁اجتہادی	-10322
▁اراقائم	-10323
▁ارتقائی	-10324
▁اسانیاں	-10325
▁استقامت	-10326
▁استوائی	-10327
▁اسماعیل	-10328
▁اسمبلنگ	-10329
▁اسٹونیا	-10330
▁اسٹونین	-10331
▁اشرافیہ	-10332
▁اظہارپہ	-10333
▁افیسروں	-10334
▁التحصیل	-10335
▁المبارک	-10336
▁امریتوں	-10337
▁اندرونی	-10338
▁انفیکشن	-10339
▁اورسستی	-10340
▁اورسپین	-10341
▁اورنازک	-10342
▁اوروہیں	-10343
▁اولمپکس	-10344
▁اونچائی	-10345
▁اکاونٹس	-10346
▁ایمپائر	-10347
▁ایوانڈو	-10348
▁بائیکنگ	-10349
▁بااسانی	-10350
▁باشندوں	-10351
▁بالعموم	-10352
▁بدعنوان	-10353
▁برائیڈل	-10354
▁براکیوں	-10355
▁برونائی	-10356
▁بندھانے	-10357
▁بولیویا	-10358
▁بھلیکھا	-10359
▁بہترکام	-10360
▁بہترہوں	-10361
▁بیماروں	-10362
▁بیٹھیئے	-10363
▁تبدیلوں	-10364
▁تجرباتی	-10365
▁تدبیریں	-10366
▁ترتیبات	-10367
▁تصوارتی	-10368
▁تصوراتی	-10369
▁تعزیریں	-10370
▁تندرستی	-10371
▁تنڈولکر	-10372
▁تیللائٹ	-10373
▁جارحانہ	-10374
▁جانبدار	-10375
▁جشنعوام	-10376
▁جواںمرد	-10377
▁جھلکیاں	-10378
▁جھونپڑی	-10379
▁جیاےایف	-10380
▁خاندانی	-10381
▁خدائیاں	-10382
▁خرابیوں	-10383
▁خوابگاہ	-10384
▁خواہشیں	-10385
▁خودبخود	-10386
▁درامدات	-10387
▁دلادیتی	-10388
▁دوربارہ	-10389
▁دوستیاں	-10390
▁دومنٹوں	-10391
▁دھاندلی	-10392
▁دہندگان	-10393
▁دیوانگی	-10394
▁راہداری	-10395
▁رنگریزا	-10396
▁رپورٹنگ	-10397
▁زندگیوں	-10398
▁سرائیکی	-10399
▁سرانجام	-10400
▁سربراہی	-10401
▁سرفہرست	-10402
▁سرٹفکیٹ	-10403
▁سماجیات	-10404
▁سمجھوتہ	-10405
▁سنبھالا	-10406
▁سنجیدگی	-10407
▁سنچریاں	-10408
▁سنگاپور	-10409
▁سٹریٹجک	-10410
▁سٹسیپاس	-10411
▁سپورٹرز	-10412
▁سکھائیں	-10413
▁سہولتوں	-10414
▁سےخصوصی	-10415
▁شاعرانہ	-10416
▁شجرکاری	-10417
▁شرمساری	-10418
▁صلواتیں	-10419
▁ضیاالحق	-10420
▁عاممقصد	-10421
▁عصبیتیں	-10422
▁علامتیں	-10423
▁فریسیئن	-10424
▁فوجداری	-10425
▁فیروئیز	-10426
▁فیسٹیول	-10427
▁قابلعمل	-10428
▁قرنطینہ	-10429
▁لاٹوالہ	-10430
▁لوگریکو	-10431
▁لگاسکتے	-10432
▁لیورپول	-10433
▁مارکسزم	-10434
▁ماونٹین	-10435
▁مخالفین	-10436
▁مخلوقات	-10437
▁معمولات	-10438
▁مقتولین	-10439
▁نئےلیڈر	-10440
▁ناامیدی	-10441
▁نامزدگی	-10442
▁نورجہاں	-10443
▁نیرندیم	-10444
▁نےتیسری	-10445
▁نےٹائٹل	-10446
▁وابستگی	-10447
▁وفاداری	-10448
▁وگریباں	-10449
▁ویلیئرز	-10450
▁ٹماٹروں	-10451
▁ٹھوکروں	-10452
▁ٹھہرایا	-10453
▁ٹیلیفون	-10454
▁ٹیمپرنگ	-10455
▁پاسداری	-10456
▁پانچویں	-10457
▁پختونوں	-10458
▁پروردگا	-10459
▁پریشانئ	-10460
▁پریمئیر	-10461
▁پریمییر	-10462
▁پریکٹسٹ	-10463
▁پسماندہ	-10464
▁پشاورسے	-10465
▁پٹھانوں	-10466
▁پھینکنے	-10467
▁پھیپھڑے	-10468
▁پہاڑیوں	-10469
▁پینتایس	-10470
▁چھینکنے	-10471
▁چیمپینز	-10472
▁چیوسیٹس	-10473
▁ڈالرہوج	-10474
▁ڈھوڑھنے	-10475
▁کااحساس	-10476
▁کارخانے	-10477
▁کارریلی	-10478
▁کافیصلہ	-10479
▁کرتاہوں	-10480
▁کردوسرے	-10481
▁کمپنیاں	-10482
▁کھنچوان	-10483
▁کھوکھلا	-10484
▁کیاجائے	-10485
▁کےعلاوہ	-10486
▁کےمسائل	-10487
▁گریڈیشن	-10488
▁گندھارا	-10489
▁گھبرانہ	-10490
▁گیمفتاح	-10491
▁ہزارویں	-10492
▁ہنگیرین	-10493
▁ہوتےہیں	-10494
▁ہوربارٹ	-10495
▁ہےعوامی	-10496
▁ہےہارون	-10497
▁یقینااس	-10498
▁یونیکوڈ	-10499
▁یوکلپٹس	-10500
▁یہودیوں	-10501
الطبیعاتی	-10502
لاقانونیت	-10503
▁ابوسفیان	-10504
▁ارٹیفیشل	-10505
▁اشدضرورت	-10506
▁اعتراضات	-10507
▁افسرشاہی	-10508
▁امیریکاز	-10509
▁انٹریکشن	-10510
▁انگوئیلا	-10511
▁انہیںفقہ	-10512
▁اورنتائج	-10513
▁اورنوعیت	-10514
▁اورپرندے	-10515
▁اورپولیس	-10516
▁اورکہانی	-10517
▁اورہمارے	-10518
▁اورہوٹنگ	-10519
▁اوورٹائم	-10520
▁اٹھتاہوں	-10521
▁اچھائیاں	-10522
▁بارانکار	-10523
▁باصلاحیت	-10524
▁باکستانی	-10525
▁بگاڑسکتی	-10526
▁بھکاریوں	-10527
▁بیلاروسی	-10528
▁تناظرمیں	-10529
▁جاسکتاہے	-10530
▁جوہرکلام	-10531
▁درسگاہوں	-10532
▁راہگیروں	-10533
▁رجسٹریشن	-10534
▁رومانویت	-10535
▁سائنٹیفک	-10536
▁سائیکلوں	-10537
▁سربراہوں	-10538
▁سرٹیفکیٹ	-10539
▁سرگرمیوں	-10540
▁سنبھالنے	-10541
▁سکیوریٹی	-10542
▁سیکیورٹی	-10543
▁شاہراہوں	-10544
▁عیدالضحی	-10545
▁قزاخستان	-10546
▁لائبریری	-10547
▁مجبوریاں	-10548
▁مجھےلگتا	-10549
▁مینیجمنٹ	-10550
▁نکلےہوئے	-10551
▁والوںمیں	-10552
▁واورینکا	-10553
▁ونڈوزایٹ	-10554
▁ونیورسٹی	-10555
▁پرسنیلٹی	-10556
▁پروگرامز	-10557
▁پریشربڑھ	-10558
▁پسماندگی	-10559
▁پچھاڑدیا	-10560
▁پہلےرانڈ	-10561
▁پیرسلمان	-10562
▁چیمپیئنز	-10563
▁ڈھانپٹنے	-10564
▁کارریسنگ	-10565
▁کاکینیڈا	-10566
▁کریادگار	-10567
▁کشمیرمیں	-10568
▁کمپیوٹنگ	-10569
▁کنسٹرکشن	-10570
▁کنکٹویٹی	-10571
▁کولاراڈو	-10572
▁کومشاورت	-10573
▁کھانےنکے	-10574
▁گواڈیلوپ	-10575
▁گھبرائیے	-10576
▁گیبانسری	-10577
▁ہوتاہےوہ	-10578
▁ہورہےہیں	-10579
▁ہوسکتاہے	-10580
▁یاسونامی	-10581
▁ائیسولیشن	-10582
▁ارمینیائی	-10583
▁انویسٹمنٹ	-10584
▁انگلینڈنے	-10585
▁اورافادیت	-10586
▁اورامریکہ	-10587
▁اورسونالی	-10588
▁اورمیخانے	-10589
▁ایپلیکیشن	-10590
▁ایکسپلورر	-10591
▁بیروزگاری	-10592
▁تجویزکردہ	-10593
▁جوہرنظروں	-10594
▁سرشاریہاں	-10595
▁سوچاسمجھا	-10596
▁عبدالرحمن	-10597
▁عربپیٹرول	-10598
▁عہدیداران	-10599
▁فریولیائی	-10600
▁لاہوردورہ	-10601
▁لوگلاجواب	-10602
▁مولانافضل	-10603
▁مہاراشٹرا	-10604
▁میکڈولینڈ	-10605
▁ناولزیادہ	-10606
▁پاکستانپی	-10607
▁پراپرٹیاں	-10608
▁پروپیگنڈہ	-10609
▁پروپیگنڈے	-10610
▁پھیلادیتا	-10611
▁کااستعمال	-10612
▁کملااتھال	-10613
▁کوجارہاہے	-10614
▁کویٹکوسکی	-10615
▁کیلئےمختص	-10616
▁کیلیےعائد	-10617
▁گئیانوراگ	-10618
▁گجرانوالہ	-10619
▁گورانٹالو	-10620
▁ہزارچھوٹے	-10621
▁ابادمیںیوم	-10622
▁اساسیسٹروک	-10623
▁اعدادوشمار	-10624
▁ایکسچینجتی	-10625
▁بیانبھارتی	-10626
▁تجاوزکرگیا	-10627
▁سرفرازاحمد	-10628
▁سرمایہکاری	-10629
▁سوئٹزرلینڈ	-10630
▁سیاستدانوں	-10631
▁سیناٹائزنگ	-10632
▁لندنسپورٹس	-10633
▁ٹرانسفارمر	-10634
▁گوجرانوالہ	-10635
▁ہدایتکاروں	-10636
▁ئرلینڈمتوقع	-10637
▁اسکینڈلناصر	-10638
▁اشاریہسازوں	-10639
▁تیاریاںقومی	-10640
▁لاہورباکمال	-10641
▁مائکرونیشیا	-10642
▁مجیدکامفہوم	-10643
▁پریکٹسٹرافی	-10644
▁ڈیسکبرطانیہ	-10645
▁انعقادپائلٹس	-10646
▁بعدالطبیعاتی	-10647
▁تاجروںشہریوں	-10648
▁تدابیراختیار	-10649
▁سرگرمیاںمعطل	-10650
▁ٹینسالیگزنڈر	-10651
▁ٹینسڈونلڈینگ	-10652
▁ڈالرہوجائےگا	-10653
▁گوادربندرگاہ	-10654
▁پریشربڑھاتےہیں	-10655
▁کیاجاتاہےکپتان	-10656
اھب	-10657
بچہ	-10658
رپٹ	-10659
سبس	-10660
سوچ	-10661
طعا	-10662
قطر	-10663
لعز	-10664
ٹکن	-10665
پوچ	-10666
ڈمے	-10667
کمو	-10668
یگا	-10669
ابطی	-10670
اخلا	-10671
اظہر	-10672
انتظ	-10673
انشا	-10674
اپنی	-10675
بازی	-10676
بخار	-10677
بودا	-10678
توبر	-10679
جوعہ	-10680
جھوڑ	-10681
حاشی	-10682
حصال	-10683
حفیظ	-10684
خبری	-10685
خراش	-10686
زوقت	-10687
شاہت	-10688
شرکا	-10689
صحیح	-10690
صفین	-10691
صےپر	-10692
علما	-10693
فریح	-10694
قبضہ	-10695
محمد	-10696
مودا	-10697
میشہ	-10698
ناچہ	-10699
معم	-10700
کپن	-10701
ئرگن	-10702
نکیں	-10703
وئیر	-10704
وافق	-10705
وفرو	-10706
وپیا	-10707
وںپر	-10708
ٹینس	-10709
پاشی	-10710
پاہو	-10711
ڑھتی	-10712
گزیک	-10713
گوگل	-10714
یزپر	-10715
یمہم	-10716
ینئز	-10717
▁تدف	-10718
▁تپش	-10719
▁تہل	-10720
▁جزئ	-10721
▁حرص	-10722
▁حصص	-10723
▁ربڑ	-10724
▁رشو	-10725
▁رعن	-10726
▁رفو	-10727
▁زیڈ	-10728
▁سگے	-10729
▁صوف	-10730
▁صیح	-10731
▁ضلع	-10732
▁عضب	-10733
▁فشر	-10734
▁فقط	-10735
▁فگن	-10736
▁لحد	-10737
▁لٹل	-10738
▁مبع	-10739
▁ممح	-10740
▁نبض	-10741
▁نفع	-10742
▁ننھ	-10743
▁نگے	-10744
▁وحد	-10745
▁وقف	-10746
▁ولن	-10747
▁ومع	-10748
▁ٹرن	-10749
▁پاپ	-10750
▁چرچ	-10751
▁چوپ	-10752
▁چہل	-10753
▁کعب	-10754
▁کچل	-10755
▁کچے	-10756
▁ہضم	-10757
▁ہڈی	-10758
ائینگ	-10759
اجیکٹ	-10760
اسٹار	-10761
اسپور	-10762
اشوٹر	-10763
العمل	-10764
اویلے	-10765
اکرتی	-10766
اکرنے	-10767
تاتھا	-10768
تارہا	-10769
حاورہ	-10770
خارجہ	-10771
دھرنے	-10772
رابطی	-10773
راورر	-10774
ربیون	-10775
ردلعز	-10776
رمحمد	-10777
روشلم	-10778
سبسڈی	-10779
سوچتا	-10780
سینجا	-10781
شیڈول	-10782
علموں	-10783
قومیت	-10784
لاجقہ	-10785
لوگوں	-10786
لیتوں	-10787
لیفور	-10788
لیمسن	-10789
ماعتی	-10790
معمول	-10791
نجھوڑ	-10792
نودگی	-10793
نڈورا	-10794
واراڑ	-10795
ورکری	-10796
ویٹکن	-10797
ٹریکٹ	-10798
ٹوریس	-10799
بہتر	-10800
تراک	-10801
رازی	-10802
زدوں	-10803
سائٹ	-10804
سعید	-10805
مرکر	-10806
میڈی	-10807
نسٹن	-10808
وڈیو	-10809
ٹنوش	-10810
پیوٹ	-10811
▁سہن	-10812
▁سہہ	-10813
▁گڈی	-10814
الباز	-10815
رفراز	-10816
مزدوں	-10817
وکاری	-10818
ٹنوشی	-10819
ٹیگری	-10820
ٹیگوا	-10821
پیوٹن	-10822
چاردی	-10823
چسٹری	-10824
ڈریشن	-10825
کلیئر	-10826
کموڈو	-10827
کولمب	-10828
کٹیکا	-10829
کپورا	-10830
گزارش	-10831
گزاشت	-10832
گینون	-10833
ھالیر	-10834
ہریلا	-10835
ہمراہ	-10836
یافتہ	-10837
یمیٹی	-10838
یوینگ	-10839
▁ائرس	-10840
▁اشتب	-10841
▁الاپ	-10842
▁الجز	-10843
▁الہن	-10844
▁اولڈ	-10845
▁اٹال	-10846
▁اٹبر	-10847
▁اڑتی	-10848
▁اہلخ	-10849
▁ایپی	-10850
▁ایڈہ	-10851
▁باسم	-10852
▁بخود	-10853
▁بخور	-10854
▁بدہن	-10855
▁براج	-10856
▁برتھ	-10857
▁برلن	-10858
▁برٹن	-10859
▁بستا	-10860
▁بعید	-10861
▁بوسہ	-10862
▁بولا	-10863
▁بچاے	-10864
▁بچھا	-10865
▁بھوج	-10866
▁بھٹک	-10867
▁بیشی	-10868
▁بیکٹ	-10869
▁بےحد	-10870
▁تنزل	-10871
▁توپس	-10872
▁تھرل	-10873
▁تہیہ	-10874
▁جامو	-10875
▁جزیر	-10876
▁جسیہ	-10877
▁جلیل	-10878
▁جملے	-10879
▁جکڑا	-10880
▁جینز	-10881
▁جیکٹ	-10882
▁حلقہ	-10883
▁حمائ	-10884
▁حماد	-10885
▁خاکم	-10886
▁خبری	-10887
▁خراس	-10888
▁خسرو	-10889
▁خلیہ	-10890
▁دبنگ	-10891
▁دلدل	-10892
▁دلہن	-10893
▁دگنی	-10894
▁دیسی	-10895
▁رابط	-10896
▁راجپ	-10897
▁راحت	-10898
▁راکھ	-10899
کشہ	-10900
اقان	-10901
الاق	-10902
اوات	-10903
رورس	-10904
فہیم	-10905
ویمن	-10906
کشمی	-10907
گوئی	-10908
گولہ	-10909
گووی	-10910
▁شمس	-10911
▁ممن	-10912
▁چاھ	-10913
ائٹیڈ	-10914
تالوں	-10915
قائدہ	-10916
لیٹکو	-10917
ٹرانک	-10918
ہنیوں	-10919
▁انکش	-10920
▁بلاگ	-10921
▁بلیٹ	-10922
▁بچھے	-10923
▁راند	-10924
▁رتنا	-10925
▁رحمد	-10926
▁رفقا	-10927
▁رقبے	-10928
▁رٹتے	-10929
▁رکان	-10930
▁رکشہ	-10931
▁رکنے	-10932
▁ریڑھ	-10933
▁ریکا	-10934
▁زونز	-10935
▁زونگ	-10936
▁ساعت	-10937
▁سانح	-10938
▁سباق	-10939
▁سجتا	-10940
▁سراج	-10941
▁سرکس	-10942
▁سریے	-10943
▁سزای	-10944
▁سنیے	-10945
▁سوزش	-10946
▁سوفے	-10947
▁سٹیز	-10948
▁سٹیگ	-10949
▁سپوک	-10950
▁سہگل	-10951
▁سیرس	-10952
▁سیما	-10953
▁شادو	-10954
▁شاند	-10955
▁شریح	-10956
▁شفیق	-10957
▁شیوے	-10958
▁صائب	-10959
▁صبری	-10960
▁صفوں	-10961
▁صوفے	-10962
▁ضبوط	-10963
▁طائف	-10964
▁طلبہ	-10965
▁طوسی	-10966
▁عجلت	-10967
▁عشاق	-10968
▁عنہا	-10969
▁فارخ	-10970
▁فالٹ	-10971
▁فخری	-10972
▁فسون	-10973
▁فلکی	-10974
▁فنگر	-10975
▁فورڈ	-10976
▁فیمم	-10977
▁فیکٹ	-10978
▁قبلا	-10979
▁قربت	-10980
▁قرضہ	-10981
▁قطرے	-10982
▁قطعا	-10983
▁لاجک	-10984
▁لادن	-10985
▁لنڈا	-10986
▁لنکن	-10987
▁لوئس	-10988
▁لکیر	-10989
▁ماشا	-10990
▁ماہی	-10991
▁مبعو	-10992
▁متشک	-10993
▁مراح	-10994
▁مراع	-10995
▁مردم	-10996
▁مردے	-10997
▁مزاق	-10998
▁مطمع	-10999
فوظ	-11000
ٹوڈ	-11001
ارشی	-11002
انپے	-11003
حدود	-11004
زلوں	-11005
سٹرک	-11006
شیان	-11007
ضلات	-11008
میرا	-11009
نامے	-11010
کرکٹ	-11011
کھٹا	-11012
▁رسل	-11013
▁رشی	-11014
▁سٹا	-11015
▁وٹو	-11016
▁ویٹ	-11017
▁ٹکن	-11018
▁پلٹ	-11019
▁ڈنم	-11020
ابراہ	-11021
اعمال	-11022
انسنگ	-11023
رانٹو	-11024
ورونا	-11025
ٹوڈنٹ	-11026
یتنام	-11027
یکارڈ	-11028
▁امیت	-11029
▁ایلف	-11030
▁بصری	-11031
▁بھاڑ	-11032
▁خرچا	-11033
▁دھاڑ	-11034
▁راشد	-11035
▁راکی	-11036
▁زڈیس	-11037
▁سٹاپ	-11038
▁سینہ	-11039
▁ضمیر	-11040
▁عاقب	-11041
▁فضار	-11042
▁فیسر	-11043
▁لڑتا	-11044
▁لڑیں	-11045
▁معدے	-11046
▁معمے	-11047
▁مقتل	-11048
▁ملیٹ	-11049
▁ملیے	-11050
▁ممبی	-11051
▁منزہ	-11052
▁منگو	-11053
▁منہل	-11054
▁مونو	-11055
▁مچھر	-11056
▁نائٹ	-11057
▁ناپس	-11058
▁نبوت	-11059
▁نبوی	-11060
▁ندرے	-11061
▁نرسر	-11062
▁نروس	-11063
▁نصیر	-11064
▁نیلی	-11065
▁نینو	-11066
▁نیچا	-11067
▁وائس	-11068
▁وارم	-11069
▁وحدت	-11070
▁وطنی	-11071
▁وعرض	-11072
▁ووٹر	-11073
▁وہتو	-11074
▁ویدر	-11075
▁ویٹل	-11076
▁ٹائٹ	-11077
▁ٹانک	-11078
▁ٹریڈ	-11079
▁ٹوئٹ	-11080
▁ٹکڑا	-11081
▁ٹھیس	-11082
▁ٹیکا	-11083
▁ٹیکٹ	-11084
▁ٹیکہ	-11085
▁پانٹ	-11086
▁پلٹے	-11087
▁پوجے	-11088
▁پولٹ	-11089
▁پونٹ	-11090
▁پکنک	-11091
▁پکھا	-11092
▁پھوڑ	-11093
▁پیاس	-11094
▁پیرا	-11095
▁پیما	-11096
▁پینل	-11097
▁چابی	-11098
▁چانس	-11099
عنت	-11100
وفٹ	-11101
انسر	-11102
اگان	-11103
زیری	-11104
لاسل	-11105
مجھے	-11106
پکار	-11107
یقین	-11108
▁ائس	-11109
▁داو	-11110
▁دعر	-11111
▁نشہ	-11112
▁ڈھٹ	-11113
▁ہاگ	-11114
ائیکا	-11115
احقین	-11116
رویلی	-11117
سائیک	-11118
ساگان	-11119
کارٹس	-11120
▁ازسر	-11121
▁اعزا	-11122
▁انٹل	-11123
▁جوڑے	-11124
▁جھیل	-11125
▁دہلا	-11126
▁دہنی	-11127
▁راہل	-11128
▁سوجن	-11129
▁فریب	-11130
▁قدمی	-11131
▁لعنت	-11132
▁میوہ	-11133
▁نشین	-11134
▁نعام	-11135
▁نےجا	-11136
▁چرچل	-11137
▁چمٹے	-11138
▁چننا	-11139
▁چومک	-11140
▁چگنی	-11141
▁چھٹا	-11142
▁چھٹک	-11143
▁چھپو	-11144
▁چھیڑ	-11145
▁چیتا	-11146
▁چیتے	-11147
▁چیچن	-11148
▁ڈگری	-11149
▁ڈھاک	-11150
▁ڈھلی	-11151
▁ڈھلے	-11152
▁ڈیلن	-11153
▁ڈینش	-11154
▁کورا	-11155
▁کوسو	-11156
▁کومع	-11157
▁کٹاک	-11158
▁کھرے	-11159
▁کیلش	-11160
▁گالف	-11161
▁گداز	-11162
▁گرچہ	-11163
▁گلاس	-11164
▁گندے	-11165
▁گننا	-11166
▁گورا	-11167
▁گورد	-11168
▁گورے	-11169
▁ھزار	-11170
▁ھیاں	-11171
▁ہارر	-11172
▁ہاشم	-11173
▁ہاوس	-11174
▁ہرزی	-11175
▁ہنرم	-11176
▁ہنڈا	-11177
▁ہوتو	-11178
▁ہیرے	-11179
▁یارڈ	-11180
▁یاکم	-11181
▁یوان	-11182
ائبانہ	-11183
اتادرب	-11184
اخلاقی	-11185
افریدی	-11186
الکاہل	-11187
امحدود	-11188
امعلوم	-11189
اہونگی	-11190
ربائیک	-11191
ربیئنز	-11192
ربیونل	-11193
رڈالتی	-11194
زوردار	-11195
سائیکل	-11196
سائیگی	-11197
سرفراز	-11198
شیانیا	-11199
بوڈ	-11200
رزا	-11201
ڈرز	-11202
کوچ	-11203
ائدے	-11204
ائزڈ	-11205
زیوں	-11206
لالت	-11207
▁اقا	-11208
▁تای	-11209
▁حمن	-11210
▁مضح	-11211
▁کنو	-11212
▁کنڑ	-11213
ابندی	-11214
بارکہ	-11215
بزیوں	-11216
بوڈیا	-11217
رزایس	-11218
فائنل	-11219
وزبان	-11220
▁اینس	-11221
▁بادہ	-11222
▁بازگ	-11223
▁ببان	-11224
▁تایخ	-11225
▁تشخص	-11226
▁تنوع	-11227
▁جلتے	-11228
▁حقیر	-11229
▁لانچ	-11230
▁چندس	-11231
▁چینج	-11232
▁ڈرون	-11233
▁ڈیلی	-11234
▁گردے	-11235
لانتان	-11236
لحکومت	-11237
لیانتی	-11238
ملزمان	-11239
منصفین	-11240
ندیدگی	-11241
نیمتیں	-11242
ولائزڈ	-11243
ولپمنٹ	-11244
ومکینک	-11245
ومینیم	-11246
ٹوٹنہم	-11247
پابندی	-11248
پرانٹو	-11249
پوریشن	-11250
گزیکٹو	-11251
گووینا	-11252
یرہستہ	-11253
یزپرام	-11254
یمیٹیڈ	-11255
ینیشیا	-11256
یکسیکو	-11257
▁اتاہے	-11258
▁اترتا	-11259
▁اجالا	-11260
▁اجرام	-11261
▁اجناس	-11262
▁اخترا	-11263
▁ارشاد	-11264
▁ارڈرز	-11265
▁ازالہ	-11266
▁اسٹین	-11267
▁اسٹیو	-11268
▁اسپور	-11269
▁افرات	-11270
▁الارم	-11271
▁الحال	-11272
▁الملک	-11273
▁الٹنے	-11274
▁امانت	-11275
▁اموات	-11276
▁انبار	-11277
▁انجلی	-11278
▁انجمن	-11279
▁اوردل	-11280
▁اوپنر	-11281
▁اڈیشن	-11282
▁اڑایا	-11283
▁اکانٹ	-11284
▁ایجاب	-11285
▁ایریا	-11286
▁ایلیا	-11287
▁ایمرج	-11288
▁اینجل	-11289
▁اینٹی	-11290
▁ایوبی	-11291
▁ایکدم	-11292
▁باریش	-11293
▁بازیچ	-11294
▁بافیا	-11295
▁ببانگ	-11296
▁بتاتا	-11297
▁بتیاں	-11298
▁بجھنے	-11299
اٹے	-11300
لسن	-11301
ڈلز	-11302
کتہ	-11303
ازلز	-11304
اوار	-11305
زملا	-11306
زمیں	-11307
ونیم	-11308
پوچے	-11309
گیشن	-11310
یکسن	-11311
▁جھگ	-11312
▁شرق	-11313
▁مضط	-11314
▁پھس	-11315
▁پھو	-11316
▁پھٹ	-11317
▁گدے	-11318
▁اشوب	-11319
▁الطب	-11320
▁اچار	-11321
▁ایپٹ	-11322
▁تایا	-11323
▁خلیج	-11324
▁داڑھ	-11325
▁ریگن	-11326
▁زیدہ	-11327
▁شرمی	-11328
▁فتنے	-11329
▁نقوش	-11330
▁ولسن	-11331
▁پھسل	-11332
▁پھلے	-11333
▁پیلز	-11334
▁چنئی	-11335
▁کیلس	-11336
ازلزلہ	-11337
▁ارباب	-11338
▁استدع	-11339
▁اشرار	-11340
▁الطبع	-11341
▁اناون	-11342
▁بدلنی	-11343
▁بربری	-11344
▁برکات	-11345
▁برہمی	-11346
▁بزدار	-11347
▁بسیار	-11348
▁بشارت	-11349
▁بشانہ	-11350
▁بلیرڈ	-11351
▁بوائے	-11352
▁بچیوں	-11353
▁بگولہ	-11354
▁بھوجپ	-11355
▁بھیجا	-11356
▁بیباک	-11357
▁بیروت	-11358
▁بیشتخ	-11359
▁بیوشن	-11360
▁بیونس	-11361
▁بیوٹی	-11362
▁تاحال	-11363
▁تاریک	-11364
▁تجزیے	-11365
▁تدفین	-11366
▁تراشے	-11367
▁ترانہ	-11368
▁ترجمے	-11369
▁تساہل	-11370
▁تعامل	-11371
▁تناسب	-11372
▁توپوں	-11373
▁تڑپنا	-11374
▁تکریم	-11375
▁تکیوں	-11376
▁تھرلر	-11377
▁تھوکو	-11378
▁تہلکہ	-11379
▁تیلگو	-11380
▁جائزے	-11381
▁جائیو	-11382
▁جاریہ	-11383
▁جایئے	-11384
▁جزیری	-11385
▁جمیکا	-11386
▁جنسوں	-11387
▁جنگجو	-11388
▁جنھیں	-11389
▁جنیوا	-11390
▁جوابا	-11391
▁جوشوا	-11392
▁جوہری	-11393
▁جھاڑا	-11394
▁جھوٹے	-11395
▁جھگڑا	-11396
▁جیبوں	-11397
▁جیکسن	-11398
▁حافظے	-11399
اڑو	-11400
بڑا	-11401
تھا	-11402
رمت	-11403
لمل	-11404
نجم	-11405
وزک	-11406
وڑا	-11407
ہوا	-11408
ئرنگ	-11409
حرمت	-11410
صہبی	-11411
مرات	-11412
نڈیش	-11413
ودھی	-11414
وسیس	-11415
ویئر	-11416
ڑایا	-11417
یاست	-11418
یکھر	-11419
▁خضر	-11420
▁دیہ	-11421
▁روگ	-11422
▁روی	-11423
▁معق	-11424
▁مکہ	-11425
▁وسط	-11426
▁ووز	-11427
▁پنج	-11428
▁پوز	-11429
▁ڈوپ	-11430
▁کشی	-11431
▁کڑے	-11432
▁گوا	-11433
▁ہاف	-11434
▁ہےا	-11435
▁یوز	-11436
ریاست	-11437
صہبیئ	-11438
لاعات	-11439
گہبان	-11440
▁اموز	-11441
▁اگئی	-11442
▁ایمب	-11443
▁بسکٹ	-11444
▁تران	-11445
▁تصوف	-11446
▁تقوی	-11447
▁دستہ	-11448
▁سبزے	-11449
▁شعلہ	-11450
▁مائی	-11451
▁ملائ	-11452
▁وسوس	-11453
▁پوٹر	-11454
▁کمیل	-11455
لملاتی	-11456
نڈیشنڈ	-11457
وسیسرز	-11458
گہبانئ	-11459
▁اگاتے	-11460
▁ایشوز	-11461
▁بلیٹن	-11462
▁بڑبڑا	-11463
▁بیکار	-11464
▁حرکات	-11465
▁حضوری	-11466
▁حقدار	-11467
▁حملوں	-11468
▁حوصلے	-11469
▁خاقان	-11470
▁خبردی	-11471
▁خرابہ	-11472
▁خریدو	-11473
▁خطابت	-11474
▁خلائق	-11475
▁خلاہے	-11476
▁دائرہ	-11477
▁داخلی	-11478
▁داخلے	-11479
▁دامنی	-11480
▁دبائے	-11481
▁دبایا	-11482
▁درندہ	-11483
▁دعائی	-11484
▁دفعات	-11485
▁دقیقہ	-11486
▁دلکشی	-11487
▁دوررس	-11488
▁دوکان	-11489
▁دکرتا	-11490
▁دھمکی	-11491
▁دہائی	-11492
▁دہناں	-11493
▁دیاہے	-11494
▁دیدیا	-11495
▁راونڈ	-11496
▁راہوں	-11497
▁رباعی	-11498
▁رحمدل	-11499
ئل	-11500
پل	-11501
باع	-11502
باق	-11503
تمع	-11504
سید	-11505
شنر	-11506
مول	-11507
وئل	-11508
▁ڈچ	-11509
ائنہ	-11510
سیلی	-11511
سیوں	-11512
طباق	-11513
فیئر	-11514
کہنا	-11515
▁برق	-11516
▁جچا	-11517
▁جھر	-11518
▁دیج	-11519
▁رمق	-11520
▁فلو	-11521
▁نسخ	-11522
▁کنٹ	-11523
▁کھڑ	-11524
دانیت	-11525
یسسٹر	-11526
▁اسنے	-11527
▁افقی	-11528
▁الام	-11529
▁انڈی	-11530
▁بدلی	-11531
▁بواح	-11532
▁جوڑا	-11533
▁دوور	-11534
▁سمپل	-11535
▁شانہ	-11536
▁فقیر	-11537
▁لوٹا	-11538
▁لیبل	-11539
▁ماتح	-11540
▁نسخہ	-11541
▁ویزہ	-11542
▁پہلہ	-11543
▁پہنے	-11544
▁چنتی	-11545
▁کولر	-11546
▁ہنڈی	-11547
▁ہیری	-11548
برادری	-11549
▁اتباع	-11550
▁اشکار	-11551
▁انمول	-11552
▁اورشا	-11553
▁اولاد	-11554
▁جھرمٹ	-11555
▁رسیوں	-11556
▁رفاہی	-11557
▁رنبیر	-11558
▁رنگار	-11559
▁روبرو	-11560
▁رونکی	-11561
▁روڈمی	-11562
▁روکیم	-11563
▁ریٹنگ	-11564
▁زراعت	-11565
▁زنانہ	-11566
▁زڈیسک	-11567
▁سائبر	-11568
▁سائیڈ	-11569
▁سانحہ	-11570
▁سبوتا	-11571
▁سجادی	-11572
▁سرانہ	-11573
▁سربیا	-11574
▁سرحدی	-11575
▁سروسز	-11576
▁سرگرد	-11577
▁سفیدی	-11578
▁سلاسل	-11579
▁سلوین	-11580
▁سلیقہ	-11581
▁سندھپ	-11582
▁سنہرا	-11583
▁سوئیڈ	-11584
▁سوارج	-11585
▁سوتیع	-11586
▁سونپا	-11587
▁سوویت	-11588
▁سوڈیم	-11589
▁سوہوا	-11590
▁سپوکن	-11591
▁سکاٹش	-11592
▁سکتیں	-11593
▁سیفٹی	-11594
▁سیمور	-11595
▁سینٹر	-11596
▁سیٹیں	-11597
▁سیکھی	-11598
▁سیہون	-11599
بگ	-11600
اخو	-11601
جاب	-11602
فیل	-11603
قیس	-11604
ندق	-11605
ورز	-11606
ٹیم	-11607
چیل	-11608
کسی	-11609
▁صل	-11610
▁طف	-11611
لائے	-11612
وبیس	-11613
وحین	-11614
▁اتح	-11615
▁ارڑ	-11616
▁درگ	-11617
▁زاد	-11618
▁شکی	-11619
▁صنا	-11620
▁لیب	-11621
▁لیز	-11622
▁مئے	-11623
▁متش	-11624
▁مون	-11625
▁ودھ	-11626
▁ٹکے	-11627
▁گسی	-11628
اخوفا	-11629
ورائے	-11630
چیلسی	-11631
▁اسمی	-11632
▁براز	-11633
▁جولی	-11634
▁حجاب	-11635
▁خندق	-11636
▁روزے	-11637
▁لمیٹ	-11638
▁پاشا	-11639
▁پراب	-11640
▁پران	-11641
▁کازر	-11642
▁کینے	-11643
▁یوکر	-11644
اتاہوں	-11645
کےبازی	-11646
▁اترنے	-11647
▁اجارہ	-11648
▁ارڑان	-11649
▁اسمیش	-11650
▁الجھا	-11651
▁الرجی	-11652
▁الفیل	-11653
▁انصار	-11654
▁ایڈور	-11655
▁بھریں	-11656
▁تشریح	-11657
▁خلاصہ	-11658
▁درگور	-11659
▁دریدہ	-11660
▁سٹیزن	-11661
▁سےٹیم	-11662
▁شائبہ	-11663
▁شاداب	-11664
▁شعائر	-11665
▁شقیقہ	-11666
▁شمشیر	-11667
▁شنائی	-11668
▁شواہد	-11669
▁شوبزڈ	-11670
▁شیکھر	-11671
▁صدرکی	-11672
▁صدیقی	-11673
▁صفایا	-11674
▁صناعی	-11675
▁ضوعات	-11676
▁طفلان	-11677
▁ظرافت	-11678
▁عبوری	-11679
▁عدنان	-11680
▁علالت	-11681
▁علیحد	-11682
▁عمودی	-11683
▁عنوان	-11684
▁عہدوں	-11685
▁فادات	-11686
▁فاشسٹ	-11687
▁فحاشی	-11688
▁فرحان	-11689
▁فرضوں	-11690
▁فریزر	-11691
▁فلاور	-11692
▁فلسفہ	-11693
▁فلوئی	-11694
▁فلورو	-11695
▁فکرپر	-11696
▁قبیلہ	-11697
▁قبیلے	-11698
▁قریبی	-11699
ادے	-11700
بلی	-11701
تیس	-11702
جوا	-11703
قاں	-11704
قاہ	-11705
یرن	-11706
▁ٹچ	-11707
تیوں	-11708
ردہا	-11709
ریزے	-11710
لیٹس	-11711
▁اپہ	-11712
▁اپے	-11713
▁باہ	-11714
▁بتی	-11715
▁توچ	-11716
▁جمپ	-11717
▁دقت	-11718
▁شتی	-11719
▁شجا	-11720
▁مکھ	-11721
▁ٹیر	-11722
▁ہوئ	-11723
اکارہ	-11724
بنانی	-11725
تاقاں	-11726
وانوں	-11727
ولیدہ	-11728
▁استف	-11729
▁اینج	-11730
▁بامی	-11731
▁خشوع	-11732
▁خوفز	-11733
▁دیان	-11734
▁رانی	-11735
▁سایٹ	-11736
▁قلمی	-11737
▁لاوا	-11738
▁لیلہ	-11739
▁لیون	-11740
▁مکھن	-11741
▁نہتے	-11742
▁نہلا	-11743
▁وجہد	-11744
▁ٹھوس	-11745
▁ٹیرف	-11746
▁ڈیرن	-11747
▁کنون	-11748
رورسوخ	-11749
▁ارادے	-11750
▁اعلام	-11751
▁اپہنچ	-11752
▁باہرم	-11753
▁بدلتا	-11754
▁بھجوا	-11755
▁توچند	-11756
▁جھوٹا	-11757
▁خلافی	-11758
▁شتیلہ	-11759
▁شجاعت	-11760
▁شردہا	-11761
▁قوموں	-11762
▁لائحہ	-11763
▁لائنز	-11764
▁لائین	-11765
▁لاشوں	-11766
▁لانڈر	-11767
▁لبرلز	-11768
▁لفظوں	-11769
▁للکار	-11770
▁لمحےف	-11771
▁لمیٹڈ	-11772
▁لودھی	-11773
▁لکشمی	-11774
▁لکھنا	-11775
▁لیبیا	-11776
▁لیمہم	-11777
▁لیوئس	-11778
▁لیپرڈ	-11779
▁لےگئے	-11780
▁مائیگ	-11781
▁ماتحت	-11782
▁مادری	-11783
▁مارٹم	-11784
▁ماسٹر	-11785
▁مافیا	-11786
▁مالیت	-11787
▁مانگو	-11788
▁مانگے	-11789
▁مانیں	-11790
▁ماڈلز	-11791
▁متشکل	-11792
▁متشکک	-11793
▁متضاد	-11794
▁مجالس	-11795
▁مجتمع	-11796
▁مجسمہ	-11797
▁مجلات	-11798
▁محتسب	-11799
تح	-11800
دوس	-11801
میچ	-11802
نہی	-11803
وتے	-11804
چاہ	-11805
چتا	-11806
ینس	-11807
ادیں	-11808
الاز	-11809
اویز	-11810
تحقی	-11811
دمنی	-11812
رانز	-11813
زانہ	-11814
وزیر	-11815
یتون	-11816
▁ازو	-11817
▁اڈہ	-11818
▁تفا	-11819
▁جری	-11820
▁حار	-11821
▁دنی	-11822
▁رنا	-11823
▁طول	-11824
▁ہود	-11825
بحریہ	-11826
تحقیق	-11827
خزانہ	-11828
دوسرا	-11829
رانزٹ	-11830
وٹینس	-11831
چاہیے	-11832
کانوں	-11833
▁ارڈی	-11834
▁اویز	-11835
▁بندش	-11836
▁بیتی	-11837
▁توار	-11838
▁جوئے	-11839
▁جچتا	-11840
▁دنیش	-11841
▁سکوک	-11842
▁عیسی	-11843
▁مشقت	-11844
▁پرنٹ	-11845
▁پلوں	-11846
▁کھنہ	-11847
▁کہلو	-11848
▁کہین	-11849
▁ہیتی	-11850
▁ہےاک	-11851
الازمی	-11852
لوٹینس	-11853
وزیردا	-11854
▁ئیحاد	-11855
▁ازواج	-11856
▁تفاوت	-11857
▁توارد	-11858
▁جونہی	-11859
▁خلیوں	-11860
▁دکھنے	-11861
▁رائیگ	-11862
▁رناوٹ	-11863
▁زیتون	-11864
▁سبسٹن	-11865
▁سزایئ	-11866
▁سپائز	-11867
▁سیارہ	-11868
▁محمدع	-11869
▁مراحل	-11870
▁مراکش	-11871
▁مرہون	-11872
▁مسالک	-11873
▁مسمار	-11874
▁مصالہ	-11875
▁مضحکہ	-11876
▁مضطرب	-11877
▁معاہد	-11878
▁معترف	-11879
▁معزول	-11880
▁معقول	-11881
▁معیوب	-11882
▁مقتدر	-11883
▁مقتدی	-11884
▁مقدور	-11885
▁ممنوع	-11886
▁منتظم	-11887
▁منحوس	-11888
▁مندوں	-11889
▁منقول	-11890
▁موافق	-11891
▁موانگ	-11892
▁موراک	-11893
▁مونٹی	-11894
▁مونٹے	-11895
▁مچھلی	-11896
▁مکروہ	-11897
▁مہنگے	-11898
▁میلان	-11899
ڈے	-11900
عون	-11901
فیم	-11902
واہ	-11903
یڈٹ	-11904
▁تز	-11905
▁فش	-11906
دیئے	-11907
ستور	-11908
سفیم	-11909
ھیوں	-11910
▁بدی	-11911
▁توا	-11912
▁سمح	-11913
▁لمس	-11914
▁نھی	-11915
▁چان	-11916
▁چست	-11917
▁کند	-11918
▁ہام	-11919
ادبرط	-11920
اہاتھ	-11921
▁امڈے	-11922
▁انکا	-11923
▁تزکی	-11924
▁جاجا	-11925
▁رفتہ	-11926
▁لینن	-11927
▁مسور	-11928
▁میگز	-11929
▁نوبہ	-11930
▁نہوں	-11931
▁پتلی	-11932
▁پھلی	-11933
▁کامح	-11934
▁کراس	-11935
▁کشوں	-11936
▁گلیم	-11937
▁گوام	-11938
▁ہنگم	-11939
اکھیوں	-11940
▁ادائے	-11941
▁اسرار	-11942
▁اسکیم	-11943
▁امیرت	-11944
▁بلائے	-11945
▁تزکیہ	-11946
▁توڑتے	-11947
▁سمحجھ	-11948
▁سٹوری	-11949
▁سہارے	-11950
▁فرعون	-11951
▁لطیفے	-11952
▁مخواہ	-11953
▁منسوب	-11954
▁مینجر	-11955
▁میوزک	-11956
▁میچوں	-11957
▁نادیہ	-11958
▁نازیہ	-11959
▁ناپنے	-11960
▁ناچاہ	-11961
▁نرسوں	-11962
▁نسلوں	-11963
▁نسلیں	-11964
▁نسواں	-11965
▁نشیلی	-11966
▁نصابی	-11967
▁نصیحت	-11968
▁نظریے	-11969
▁نمازی	-11970
▁نمٹنے	-11971
▁نمکین	-11972
▁نوٹیف	-11973
▁نکالے	-11974
▁نکھوں	-11975
▁نیتوں	-11976
▁نیویس	-11977
▁نیپال	-11978
▁واجبی	-11979
▁وارڈز	-11980
▁واپڈا	-11981
▁واہگہ	-11982
▁وجودس	-11983
▁ودھام	-11984
▁وزوال	-11985
▁وسوسے	-11986
▁وشرکا	-11987
▁وطنیت	-11988
▁وظیفہ	-11989
▁ونسٹن	-11990
▁ونگار	-11991
▁ووٹنگ	-11992
▁وپکار	-11993
▁وڈیرے	-11994
▁ویلیو	-11995
▁ٹائون	-11996
▁ٹرنبا	-11997
▁ٹرکوں	-11998
▁ٹورسٹ	-11999
دق	-12000
ہق	-12001
بوں	-12002
حاں	-12003
عوب	-12004
واز	-12005
گیں	-12006
یاض	-12007
ینر	-12008
▁لش	-12009
▁مٹ	-12010
▁ہش	-12011
ارنی	-12012
ختگی	-12013
ردار	-12014
روشی	-12015
شالا	-12016
ندکے	-12017
ہقہے	-12018
▁اپر	-12019
▁بشپ	-12020
▁تجس	-12021
▁خور	-12022
▁صاب	-12023
▁فنا	-12024
▁لوم	-12025
▁لڑے	-12026
▁ملب	-12027
▁میپ	-12028
▁کاق	-12029
▁کیپ	-12030
▁ہری	-12031
▁یہئ	-12032
خراجی	-12033
نگزیب	-12034
▁امیں	-12035
▁بادی	-12036
▁بدنص	-12037
▁برقی	-12038
▁بسنے	-12039
▁تجسس	-12040
▁داتا	-12041
▁سپرے	-12042
▁شعری	-12043
▁فیاض	-12044
▁لشکر	-12045
▁میٹس	-12046
▁نارت	-12047
▁نسدق	-12048
▁چیئر	-12049
▁کئیے	-12050
▁گواہ	-12051
▁ہشام	-12052
ربردار	-12053
▁الجاز	-12054
▁بہتات	-12055
▁تیرتی	-12056
▁خودکل	-12057
▁خوروں	-12058
▁دیگیں	-12059
▁راموز	-12060
▁روزسک	-12061
▁سرجری	-12062
▁شعبوں	-12063
▁شکستہ	-12064
▁شیئرز	-12065
▁صابرہ	-12066
▁قہقہے	-12067
▁لبرٹی	-12068
▁مرعوب	-12069
▁ملبوس	-12070
▁منحصر	-12071
▁مٹانے	-12072
▁نارتھ	-12073
▁ٹکٹرے	-12074
▁ٹکٹوں	-12075
▁ٹھگنی	-12076
▁ٹھیلے	-12077
▁ٹھیکا	-12078
▁ٹھیکہ	-12079
▁ٹیریس	-12080
▁پارلر	-12081
▁پالتو	-12082
▁پاگیا	-12083
▁پدمنی	-12084
▁پرافٹ	-12085
▁پرایف	-12086
▁پرتوں	-12087
▁پرتیں	-12088
▁پرستش	-12089
▁پرسند	-12090
▁پرسوں	-12091
▁پرمار	-12092
▁پرومو	-12093
▁پروڈی	-12094
▁پرڈال	-12095
▁پرکھا	-12096
▁پریرا	-12097
▁پنجرہ	-12098
▁پنپنے	-12099
پٹ	-12100
تبد	-12101
زال	-12102
زول	-12103
لاگ	-12104
کاک	-12105
▁عا	-12106
ابلد	-12107
اصرہ	-12108
شانی	-12109
▁دوم	-12110
▁مرہ	-12111
▁میت	-12112
▁چبا	-12113
▁ڈگر	-12114
▁کرش	-12115
افیوں	-12116
تبدیل	-12117
▁اسیر	-12118
▁اڑھے	-12119
▁ایڈڈ	-12120
▁براب	-12121
▁بلنگ	-12122
▁بچنا	-12123
▁بکسے	-12124
▁بہام	-12125
▁تولی	-12126
▁حدید	-12127
▁خطرن	-12128
▁شوسی	-12129
▁شہرو	-12130
▁صدام	-12131
▁عاید	-12132
▁فائی	-12133
▁نزول	-12134
▁ویلٹ	-12135
▁پونے	-12136
▁پیٹس	-12137
▁کریم	-12138
▁گایا	-12139
▁ہوکہ	-12140
مسلمان	-12141
▁ابائی	-12142
▁ارادی	-12143
▁البرٹ	-12144
▁بالکر	-12145
▁بنکاک	-12146
▁ترسیل	-12147
▁راموس	-12148
▁رونما	-12149
▁سٹائن	-12150
▁سکرپٹ	-12151
▁عضلات	-12152
▁عمراک	-12153
▁لگادی	-12154
▁نابلد	-12155
▁پامال	-12156
▁پرائی	-12157
▁پنکھے	-12158
▁پوسٹر	-12159
▁پوچھو	-12160
▁پٹانے	-12161
▁پڑگیا	-12162
▁پکارا	-12163
▁پکڑنے	-12164
▁پھلنے	-12165
▁پھنسی	-12166
▁پھولو	-12167
▁پھولے	-12168
▁پھوٹی	-12169
▁پھیرے	-12170
▁پہنتا	-12171
▁پیرول	-12172
▁پیوند	-12173
▁پیٹوں	-12174
▁پیپسی	-12175
▁پیکاں	-12176
▁چائنہ	-12177
▁چاھتا	-12178
▁چاہنا	-12179
▁چاہنے	-12180
▁چمچوں	-12181
▁چمکتا	-12182
▁چندسو	-12183
▁چوبیس	-12184
▁چورکے	-12185
▁چڑھتا	-12186
▁چکانا	-12187
▁چکانی	-12188
▁چھتری	-12189
▁چھلکے	-12190
▁چھٹیں	-12191
▁چھیپا	-12192
▁چھیڑا	-12193
▁چھیڑی	-12194
▁چھیڑے	-12195
▁چیکنگ	-12196
▁ڈانڈے	-12197
▁ڈرانے	-12198
▁ڈسٹری	-12199
تک	-12200
ڈٹ	-12201
ڑہ	-12202
کب	-12203
ائئ	-12204
بیب	-12205
رضی	-12206
سمس	-12207
ماز	-12208
نسل	-12209
نڈہ	-12210
▁گئ	-12211
اکید	-12212
ومان	-12213
ڈٹیک	-12214
کنار	-12215
▁اجے	-12216
▁اپا	-12217
▁دبی	-12218
▁دکو	-12219
▁ربی	-12220
▁ماو	-12221
▁پات	-12222
▁پلس	-12223
▁پگھ	-12224
▁چول	-12225
▁ڈھی	-12226
سٹریم	-12227
سیریز	-12228
ندانہ	-12229
کرادی	-12230
▁انڈا	-12231
▁اکان	-12232
▁اگلا	-12233
▁ایکٹ	-12234
▁بجیا	-12235
▁بندے	-12236
▁بیسٹ	-12237
▁بیڑہ	-12238
▁حبیب	-12239
▁دوسا	-12240
▁سمان	-12241
▁سنمب	-12242
▁ظہیر	-12243
▁ننجی	-12244
▁وارز	-12245
▁وومن	-12246
▁ڈھیل	-12247
▁اوررو	-12248
▁ایڈول	-12249
▁برطرف	-12250
▁بعدون	-12251
▁تاکید	-12252
▁تیونس	-12253
▁خارجی	-12254
▁شمارے	-12255
▁شمیسی	-12256
▁لائیں	-12257
▁مرتکب	-12258
▁معملہ	-12259
▁منشور	-12260
▁پگھلا	-12261
▁پہلوئ	-12262
▁ڈنمار	-12263
▁ڈھلتی	-12264
▁ڈیمرل	-12265
▁ڈیگال	-12266
▁ڈےانگ	-12267
▁کااخت	-12268
▁کاایک	-12269
▁کارگو	-12270
▁کافرض	-12271
▁کاقیا	-12272
▁کالعد	-12273
▁کامرک	-12274
▁کانوں	-12275
▁کاٹتے	-12276
▁کاپٹر	-12277
▁کاکوٹ	-12278
▁کرانا	-12279
▁کراچے	-12280
▁کرایہ	-12281
▁کرسمس	-12282
▁کرسکے	-12283
▁کرشمہ	-12284
▁کرچکی	-12285
▁کریئر	-12286
▁کشائی	-12287
▁کلورو	-12288
▁کلیئر	-12289
▁کلیجہ	-12290
▁کلیمز	-12291
▁کماتے	-12292
▁کمایا	-12293
▁کمشنر	-12294
▁کندھے	-12295
▁کنویں	-12296
▁کورٹر	-12297
▁کوستے	-12298
▁کوسجا	-12299
زڈ	-12300
خلہ	-12301
ریٹ	-12302
وزن	-12303
وسر	-12304
ڈوس	-12305
کرج	-12306
▁تگ	-12307
▁حو	-12308
▁قض	-12309
ارہے	-12310
اریل	-12311
افقت	-12312
ستار	-12313
فتوی	-12314
ندیل	-12315
ونڈر	-12316
گرون	-12317
یرنگ	-12318
یوزڈ	-12319
▁بدو	-12320
▁جیک	-12321
▁دہی	-12322
▁طبق	-12323
▁قون	-12324
▁منن	-12325
▁نفو	-12326
▁ٹلے	-12327
▁پیز	-12328
▁کرخ	-12329
▁کوڈ	-12330
باڈوس	-12331
داحوں	-12332
لادوں	-12333
وٹیاں	-12334
▁تائی	-12335
▁جسٹن	-12336
▁جھول	-12337
▁حالی	-12338
▁خداو	-12339
▁سٹار	-12340
▁شائع	-12341
▁فلیر	-12342
▁قضیے	-12343
▁قطعی	-12344
▁لئیم	-12345
▁مطلق	-12346
▁موخر	-12347
▁مپال	-12348
▁نہلے	-12349
▁وحشی	-12350
▁پولی	-12351
▁کران	-12352
▁کنبے	-12353
وزنہیں	-12354
گرونال	-12355
▁اٹھیں	-12356
▁بروکل	-12357
▁تشبیہ	-12358
▁قندیل	-12359
▁قونصل	-12360
▁لےکرج	-12361
▁مسلکی	-12362
▁مننھے	-12363
▁ناریل	-12364
▁پولیو	-12365
▁پیوست	-12366
▁چنائی	-12367
▁کالمی	-12368
▁کوبلی	-12369
▁کوسٹا	-12370
▁کومور	-12371
▁کٹائو	-12372
▁کپڑوں	-12373
▁کچلنے	-12374
▁کھاسی	-12375
▁کھولے	-12376
▁کھوٹی	-12377
▁کھوکھ	-12378
▁کھڑکی	-12379
▁کیانی	-12380
▁کیمرہ	-12381
▁کیمپس	-12382
▁کیمین	-12383
▁کیڑوں	-12384
▁گرافی	-12385
▁گرمئی	-12386
▁گرہیں	-12387
▁گزرنا	-12388
▁گفتار	-12389
▁گلیمر	-12390
▁گلیڈی	-12391
▁گوارہ	-12392
▁گواٹے	-12393
▁گولڈن	-12394
▁گونجے	-12395
▁گھاٹے	-12396
▁گھستا	-12397
▁گھنٹی	-12398
▁گھوڑا	-12399
داف	-12400
سنے	-12401
قوف	-12402
موں	-12403
ناف	-12404
ےکی	-12405
▁رڈ	-12406
▁پج	-12407
زالی	-12408
مالی	-12409
یکنڈ	-12410
▁جلے	-12411
▁زنے	-12412
▁نوح	-12413
▁ٹال	-12414
▁کٹس	-12415
▁ہوپ	-12416
▁ہوے	-12417
اریوں	-12418
▁بینا	-12419
▁رڈلف	-12420
▁لگاو	-12421
▁مبال	-12422
▁مجیب	-12423
▁منشا	-12424
▁ناقص	-12425
▁ٹےکی	-12426
▁پیجر	-12427
▁کائی	-12428
▁کایا	-12429
▁کوکھ	-12430
▁کیاج	-12431
▁کیلا	-12432
▁ہورہ	-12433
▁یقیں	-12434
اشمالی	-12435
▁اسامی	-12436
▁اصناف	-12437
▁افیشل	-12438
▁اگائے	-12439
▁اہداف	-12440
▁ترسنے	-12441
▁جوخدا	-12442
▁درباں	-12443
▁دلائی	-12444
▁سلسوں	-12445
▁سونیا	-12446
▁سیکنڈ	-12447
▁ضربیں	-12448
▁لرزاں	-12449
▁لوٹتے	-12450
▁مخمصے	-12451
▁مشاری	-12452
▁موقوف	-12453
▁ٹیلنٹ	-12454
▁پجارا	-12455
▁پرویز	-12456
▁کھائی	-12457
▁گیروں	-12458
▁گیمنگ	-12459
▁گینڈے	-12460
▁ھمیشہ	-12461
▁ہاسنگ	-12462
▁ہترین	-12463
▁ہتھیا	-12464
▁ہجراں	-12465
▁ہراکر	-12466
▁ہرسال	-12467
▁ہریرو	-12468
▁ہمپٹن	-12469
▁ہندسے	-12470
▁ہندود	-12471
▁ہنستا	-12472
▁ہوتیں	-12473
▁ہودگی	-12474
▁ہوسکی	-12475
▁ہولڈر	-12476
▁ہولیں	-12477
▁ہونےو	-12478
▁ہڈیاں	-12479
▁ہیلتھ	-12480
▁ہیمبر	-12481
▁ہےخدا	-12482
▁یئرگن	-12483
▁یجنسی	-12484
▁یشانی	-12485
▁یوٹرن	-12486
ابراہیم	-12487
اجوانوں	-12488
ادتقریب	-12489
ارکٹیکا	-12490
اسکتاہے	-12491
اطلاعات	-12492
افتتاحی	-12493
الحکومت	-12494
الزامات	-12495
القادری	-12496
انتظامی	-12497
اورمرکر	-12498
برداروں	-12499
رور	-12500
ریل	-12501
شنز	-12502
ماں	-12503
پان	-12504
ھیم	-12505
▁حا	-12506
ئیگی	-12507
انیں	-12508
سولر	-12509
نایل	-12510
ندان	-12511
واجی	-12512
پہلے	-12513
پینے	-12514
یکسی	-12515
▁اسڑ	-12516
▁امک	-12517
▁اوز	-12518
▁بٹی	-12519
▁بہا	-12520
▁تخت	-12521
▁جاچ	-12522
▁ریم	-12523
▁مزا	-12524
▁معش	-12525
▁ہین	-12526
دواجی	-12527
راھیم	-12528
ٹیریل	-12529
▁ائنہ	-12530
▁اسیہ	-12531
▁امجد	-12532
▁برام	-12533
▁بچال	-12534
▁جواخ	-12535
▁روجر	-12536
▁رومی	-12537
▁زدور	-12538
▁سونا	-12539
▁سویت	-12540
▁سٹور	-12541
▁کسور	-12542
▁کلپر	-12543
مبرانہ	-12544
▁اسڑیل	-12545
▁اورڈی	-12546
▁ایرون	-12547
▁بھولی	-12548
▁جاچکی	-12549
▁حرمین	-12550
▁دوسنی	-12551
▁دھونی	-12552
▁ریمنڈ	-12553
▁سالار	-12554
▁سنانا	-12555
▁سنگاک	-12556
▁شماری	-12557
▁عزائم	-12558
▁مشورے	-12559
▁معشیت	-12560
▁مینکس	-12561
▁نظارا	-12562
▁پردوں	-12563
▁پٹھوں	-12564
▁چناچہ	-12565
▁کالام	-12566
▁کلکتہ	-12567
دارقرار	-12568
رامسئلہ	-12569
سپتالوں	-12570
شنائیاں	-12571
میکسیکو	-12572
ورکریٹس	-12573
ونائیٹڈ	-12574
ٹرساگان	-12575
کولمبیا	-12576
گرٹنوشی	-12577
▁ائیندہ	-12578
▁ابروئے	-12579
▁ابھرتے	-12580
▁اتحادی	-12581
▁اختراع	-12582
▁اخرکار	-12583
▁ادئیگی	-12584
▁ارتکاب	-12585
▁ارتکاز	-12586
▁اساسات	-12587
▁استوار	-12588
▁اسٹالز	-12589
▁اسٹیٹس	-12590
▁اسکرین	-12591
▁اسکمنگ	-12592
▁اسکواش	-12593
▁اسکوٹر	-12594
▁اسکھوں	-12595
▁اشتراک	-12596
▁اشیائے	-12597
▁افتخار	-12598
▁افسانہ	-12599
امو	-12600
تار	-12601
شیر	-12602
نقا	-12603
ولے	-12604
ڈیٹ	-12605
کسر	-12606
▁ڈو	-12607
جائز	-12608
ڑیئے	-12609
▁انٹ	-12610
▁بچت	-12611
▁تجھ	-12612
▁دال	-12613
▁رٹا	-12614
▁ستی	-12615
▁سوز	-12616
▁سوک	-12617
▁فجی	-12618
▁لاس	-12619
▁لیک	-12620
▁مما	-12621
▁وزی	-12622
▁ٹرت	-12623
اموسم	-12624
لستان	-12625
لہاتے	-12626
ہنیاں	-12627
▁بھرم	-12628
▁روتا	-12629
▁سونی	-12630
▁سکنے	-12631
▁صدیق	-12632
▁فردا	-12633
▁نقشے	-12634
▁ٹرتھ	-12635
▁چینے	-12636
▁ڈوڈل	-12637
▁کالا	-12638
▁کوال	-12639
▁گیلک	-12640
▁ںوٹس	-12641
▁ہرار	-12642
پیگنڈا	-12643
کھلاڑی	-12644
▁اتارا	-12645
▁اشفاق	-12646
▁اوتار	-12647
▁اپڈیٹ	-12648
▁بریگی	-12649
▁بلدیہ	-12650
▁بچائو	-12651
▁بچایا	-12652
▁تبشیر	-12653
▁تفہیم	-12654
▁جائیے	-12655
▁ستیان	-12656
▁سردست	-12657
▁عرفات	-12658
▁قسمیں	-12659
▁لگاکر	-12660
▁مخلوط	-12661
▁ملزکے	-12662
▁منکسر	-12663
▁مڑیئے	-12664
▁میٹرو	-12665
▁وزیٹر	-12666
▁کنگنا	-12667
▁کوایک	-12668
▁ہوسکا	-12669
▁احمقوں	-12670
▁اشتباہ	-12671
▁افشانی	-12672
▁الاپتے	-12673
▁الجھاو	-12674
▁العربی	-12675
▁العنان	-12676
▁المزاج	-12677
▁المیوں	-12678
▁اماںجی	-12679
▁امتحاں	-12680
▁امپورٹ	-12681
▁امکانی	-12682
▁اندازی	-12683
▁اندرون	-12684
▁اندواز	-12685
▁انطباق	-12686
▁انکارک	-12687
▁انگریس	-12688
▁اوازیں	-12689
▁اورسید	-12690
▁اورلوگ	-12691
▁اورنئے	-12692
▁اورچیز	-12693
▁اٹالین	-12694
▁اپہنچا	-12695
▁اچھوتے	-12696
▁اکانٹس	-12697
▁اکتوبر	-12698
▁اکھاڑا	-12699
اقت	-12700
راط	-12701
روڈ	-12702
زاں	-12703
وقت	-12704
یشا	-12705
طاقت	-12706
کہتے	-12707
یشین	-12708
▁ابد	-12709
▁ارو	-12710
▁تمل	-12711
▁تمن	-12712
▁جرا	-12713
▁سبو	-12714
▁ظفر	-12715
▁عمی	-12716
▁قبا	-12717
▁ابھے	-12718
▁ازکم	-12719
▁اورع	-12720
▁ایسب	-12721
▁ایسو	-12722
▁بریف	-12723
▁بسری	-12724
▁بکیز	-12725
▁تعال	-12726
▁خوار	-12727
▁داسو	-12728
▁رزمی	-12729
▁سباب	-12730
▁سینا	-12731
▁شیلی	-12732
▁صرفہ	-12733
▁ضارب	-12734
▁عمیق	-12735
▁فیئر	-12736
▁لیوک	-12737
▁محرک	-12738
▁محلے	-12739
▁مونا	-12740
▁مونگ	-12741
▁نااش	-12742
▁نھیں	-12743
▁نیشا	-12744
▁کوکر	-12745
▁گوہر	-12746
▁گیٹس	-12747
▁ہےوہ	-12748
▁یابی	-12749
سٹرکچر	-12750
یالوقت	-12751
▁ارزاں	-12752
▁اروبا	-12753
▁اسکور	-12754
▁افراط	-12755
▁اورجا	-12756
▁ایٹرز	-12757
▁ایکٹر	-12758
▁بحرین	-12759
▁تھےاد	-12760
▁جانوں	-12761
▁رزمیہ	-12762
▁روکتا	-12763
▁سلیوٹ	-12764
▁شنیرا	-12765
▁طرازی	-12766
▁فوائل	-12767
▁قاعدے	-12768
▁نوکیا	-12769
▁چلائے	-12770
▁چڑھتے	-12771
▁کمائی	-12772
▁گھانا	-12773
▁ادمیوں	-12774
▁اورعرب	-12775
▁اکستان	-12776
▁اکھاڑو	-12777
▁اکھاڑے	-12778
▁ایجابی	-12779
▁ایسبسٹ	-12780
▁ایموجی	-12781
▁اینایل	-12782
▁اینجلس	-12783
▁ایپٹما	-12784
▁ایڈولف	-12785
▁ایڈہاک	-12786
▁ایکسپو	-12787
▁ایکٹنگ	-12788
▁باتونی	-12789
▁باربار	-12790
▁بارشوں	-12791
▁بازگشت	-12792
▁بازیچہ	-12793
▁باسمتی	-12794
▁بامیان	-12795
▁بانکپن	-12796
▁بتعداد	-12797
▁بجھانا	-12798
▁بدستور	-12799
یلف	-12800
▁چت	-12801
ردیا	-12802
قیوم	-12803
لاما	-12804
وتری	-12805
ویلی	-12806
ٹروں	-12807
▁اگی	-12808
▁تجل	-12809
▁تکے	-12810
▁جدا	-12811
▁سٹر	-12812
▁عاش	-12813
▁مفر	-12814
▁نھے	-12815
▁وائ	-12816
▁چکر	-12817
▁ڈاٹ	-12818
▁کما	-12819
▁گرے	-12820
جانوں	-12821
▁ادبی	-12822
▁املہ	-12823
▁براں	-12824
▁بھلے	-12825
▁بہرے	-12826
▁تدار	-12827
▁حلیم	-12828
▁حکیم	-12829
▁دوسو	-12830
▁سولر	-12831
▁سیاق	-12832
▁سیاہ	-12833
▁شارٹ	-12834
▁شکلا	-12835
▁شیلف	-12836
▁عاشق	-12837
▁محور	-12838
▁میان	-12839
▁ٹاون	-12840
▁پچیس	-12841
▁پیچھ	-12842
▁کارہ	-12843
▁کوبی	-12844
▁کھنگ	-12845
▁کھنے	-12846
▁گلوں	-12847
▁ارائی	-12848
▁تحائف	-12849
▁تدارک	-12850
▁حویلی	-12851
▁رستوں	-12852
▁سوچوں	-12853
▁سٹارٹ	-12854
▁عوامل	-12855
▁فلیٹس	-12856
▁مشکبو	-12857
▁منائی	-12858
▁وائلڈ	-12859
▁پرنظر	-12860
▁چوپڑا	-12861
▁کھائے	-12862
▁کھانی	-12863
▁گرافر	-12864
▁ہیلری	-12865
▁ایشائی	-12866
▁بدنامی	-12867
▁بدنصیب	-12868
▁برابری	-12869
▁براستہ	-12870
▁برامدہ	-12871
▁برسانے	-12872
▁برمودا	-12873
▁برونڈی	-12874
▁برٹینس	-12875
▁بریفنگ	-12876
▁بریگیڈ	-12877
▁بسلاما	-12878
▁بلائےج	-12879
▁بلخصوص	-12880
▁بمبارا	-12881
▁بنادیا	-12882
▁بچالیا	-12883
▁بچھائی	-12884
▁بڑھاپے	-12885
▁بھراہے	-12886
▁بھلانا	-12887
▁بھلایا	-12888
▁بھولئے	-12889
▁بہارتی	-12890
▁بہاماس	-12891
▁بہتریں	-12892
▁بیٹھنا	-12893
▁تاحیات	-12894
▁تجاویز	-12895
▁تجلیات	-12896
▁ترانوں	-12897
▁ترجیحی	-12898
▁ترسیلی	-12899
رق	-12900
اسن	-12901
باس	-12902
وتھ	-12903
کہا	-12904
اہدی	-12905
بیاں	-12906
ودیہ	-12907
کہری	-12908
کہیں	-12909
ہوری	-12910
ینیز	-12911
▁بکی	-12912
▁خفت	-12913
▁سرب	-12914
▁لاڈ	-12915
▁پدر	-12916
▁چاز	-12917
▁گیت	-12918
▁افات	-12919
▁انور	-12920
▁باسط	-12921
▁جلنے	-12922
▁جنسی	-12923
▁دادی	-12924
▁سارت	-12925
▁صفحہ	-12926
▁عماد	-12927
▁عمرا	-12928
▁محسن	-12929
▁مشرا	-12930
▁منکر	-12931
▁میرٹ	-12932
▁نظمی	-12933
▁پھرل	-12934
▁چھڑی	-12935
▁کرکہ	-12936
▁کنجی	-12937
▁کھتا	-12938
▁گشتہ	-12939
▁یاور	-12940
▁یوتھ	-12941
وفروخت	-12942
▁اونرز	-12943
▁اکہری	-12944
▁ترانے	-12945
▁توانا	-12946
▁جلاتے	-12947
▁سائیں	-12948
▁سارتر	-12949
▁شیریں	-12950
▁فائدے	-12951
▁نتیجی	-12952
▁نواسن	-12953
▁نےکہا	-12954
▁وقتوں	-12955
▁ٹینکر	-12956
▁چاندی	-12957
▁چیختا	-12958
▁کارگر	-12959
▁کرچکے	-12960
ٹرفائنل	-12961
▁استعفی	-12962
▁ایڈورڈ	-12963
▁بادبان	-12964
▁بتارہا	-12965
▁بیبیاں	-12966
▁تعصبات	-12967
▁تفریحی	-12968
▁تقاضوں	-12969
▁تقسیمی	-12970
▁تواپنی	-12971
▁توایسے	-12972
▁تولیگی	-12973
▁توپہلے	-12974
▁تھانوں	-12975
▁تھوکئے	-12976
▁تھکاوٹ	-12977
▁تیارکر	-12978
▁تیراکی	-12979
▁جاسکتے	-12980
▁جرمانے	-12981
▁جریدوں	-12982
▁جزئیات	-12983
▁جماعتی	-12984
▁جنجوعہ	-12985
▁جوابات	-12986
▁جورائے	-12987
▁جونئیر	-12988
▁جھومتا	-12989
▁جھکائو	-12990
▁جہادکی	-12991
▁جیتےگا	-12992
▁حرکتیں	-12993
▁حمائمہ	-12994
▁خانقاہ	-12995
▁خریدار	-12996
▁خطاوار	-12997
▁خطیبوں	-12998
▁خوانگی	-12999
بوب	-13000
تیہ	-13001
عین	-13002
قصہ	-13003
نٹن	-13004
کلف	-13005
ائلٹ	-13006
سموں	-13007
چیور	-13008
کرتے	-13009
کرنے	-13010
یرکے	-13011
یہاں	-13012
▁جول	-13013
▁خلق	-13014
▁دنو	-13015
▁رچی	-13016
▁شبر	-13017
▁فنچ	-13018
اتیوں	-13019
ادیات	-13020
اراجا	-13021
دیاتی	-13022
ناہیں	-13023
▁انتط	-13024
▁اییے	-13025
▁بایں	-13026
▁بنجو	-13027
▁تبتی	-13028
▁جیسن	-13029
▁رنگے	-13030
▁ریفر	-13031
▁عزتی	-13032
▁فرسٹ	-13033
▁مکلف	-13034
▁نہال	-13035
▁چھکے	-13036
▁کاکل	-13037
▁کرئے	-13038
▁گڑھے	-13039
▁ہےکہ	-13040
▁ادتیہ	-13041
▁اوربے	-13042
▁اورنج	-13043
▁اورکی	-13044
▁اورہر	-13045
▁اکائی	-13046
▁اینجے	-13047
▁باوجو	-13048
▁جوابی	-13049
▁دلیری	-13050
▁ریکٹس	-13051
▁سخاوت	-13052
▁سمارا	-13053
▁عبارت	-13054
▁پائلٹ	-13055
▁چھلکا	-13056
▁کارفر	-13057
▁کلنٹن	-13058
▁کمانا	-13059
▁کیشنز	-13060
▁گیارہ	-13061
▁یاروں	-13062
ردلعزیز	-13063
▁ازمانے	-13064
▁انتطار	-13065
▁اکسایا	-13066
▁بچائیں	-13067
▁بیرکوں	-13068
▁بیٹھیں	-13069
▁تویہاں	-13070
▁خانماں	-13071
▁خشخبری	-13072
▁خودکشی	-13073
▁خوشیوں	-13074
▁خوفزدہ	-13075
▁دانتوں	-13076
▁دانیال	-13077
▁دشمنوں	-13078
▁دعائیں	-13079
▁دعائیہ	-13080
▁دفترپر	-13081
▁دلخراش	-13082
▁دلہنیں	-13083
▁دنیاکی	-13084
▁دوبارا	-13085
▁دوساٹھ	-13086
▁دوورنہ	-13087
▁دوڑاتے	-13088
▁دکانوں	-13089
▁دکھاتا	-13090
▁دکھاوا	-13091
▁دھلائی	-13092
▁دھماکہ	-13093
▁دہرائی	-13094
▁دہرانے	-13095
▁دیانتی	-13096
▁دیتاہے	-13097
▁دیہاتی	-13098
▁رائیور	-13099
رہے	-13100
شدہ	-13101
قعت	-13102
نڈم	-13103
ویب	-13104
▁ھر	-13105
اروس	-13106
ربھی	-13107
سمجھ	-13108
وبشی	-13109
▁رخت	-13110
▁صفر	-13111
▁فنڈ	-13112
▁ملر	-13113
▁منھ	-13114
▁نوا	-13115
▁وگر	-13116
▁کسب	-13117
▁گیپ	-13118
ھیروں	-13119
▁اتری	-13120
▁اتما	-13121
▁اموی	-13122
▁اہلی	-13123
▁ایاز	-13124
▁بجنے	-13125
▁بدلا	-13126
▁تصوی	-13127
▁جسکے	-13128
▁حمید	-13129
▁رحمن	-13130
▁زمرے	-13131
▁نجیب	-13132
▁وقعت	-13133
▁ٹھاک	-13134
▁پگڑی	-13135
▁چاول	-13136
▁ڈائم	-13137
▁کانپ	-13138
▁ہارا	-13139
▁ہینڈ	-13140
▁یٹری	-13141
نڈاروس	-13142
▁احادی	-13143
▁بجانا	-13144
▁بدناں	-13145
▁بلایا	-13146
▁بھینس	-13147
▁تبریز	-13148
▁جاگنگ	-13149
▁جمہور	-13150
▁ریورس	-13151
▁سلگنے	-13152
▁سیکسی	-13153
▁طےشدہ	-13154
▁لادوا	-13155
▁مسلئے	-13156
▁ملٹری	-13157
▁میانہ	-13158
▁وگرنہ	-13159
▁پوچھی	-13160
▁کرادی	-13161
▁کریڈٹ	-13162
▁گزارہ	-13163
▁اسٹیلز	-13164
▁اورجان	-13165
▁اپنایا	-13166
▁بربریت	-13167
▁بلستان	-13168
▁بوسنیا	-13169
▁تصویری	-13170
▁جانانہ	-13171
▁جنریشن	-13172
▁رابطوں	-13173
▁راجپوت	-13174
▁رامپال	-13175
▁راونڈر	-13176
▁رعنائی	-13177
▁رنگینی	-13178
▁روانڈا	-13179
▁روزقبل	-13180
▁روسیوں	-13181
▁روڈمیپ	-13182
▁روکیما	-13183
▁رپورٹس	-13184
▁رچرڈسن	-13185
▁رکھتیں	-13186
▁رہینگے	-13187
▁ریسکیو	-13188
▁ریفریش	-13189
▁ریلویز	-13190
▁ریونیو	-13191
▁زاہدوں	-13192
▁زہریلا	-13193
▁زیبائی	-13194
▁زیورات	-13195
▁ساختگی	-13196
▁سازشوں	-13197
▁سامسنگ	-13198
▁سامعین	-13199
ہٹ	-13200
فیڈ	-13201
▁ئن	-13202
بیئن	-13203
سپٹل	-13204
ہالا	-13205
▁بچی	-13206
▁بھا	-13207
▁حمد	-13208
▁سجے	-13209
▁شہہ	-13210
▁صدق	-13211
▁چسپ	-13212
▁ڈوس	-13213
▁ڈوی	-13214
یکٹرم	-13215
▁ایشو	-13216
▁بلیم	-13217
▁دستی	-13218
▁رموز	-13219
▁شکوہ	-13220
▁صاھب	-13221
▁صلاح	-13222
▁عمرہ	-13223
▁لالے	-13224
▁لبید	-13225
▁مارج	-13226
▁متفق	-13227
▁مداح	-13228
▁مدید	-13229
▁مدیر	-13230
▁مستی	-13231
▁نسان	-13232
▁نقاد	-13233
▁پھلو	-13234
▁پیٹو	-13235
▁کلاک	-13236
▁کیسٹ	-13237
▁گھاٹ	-13238
▁اٹھنا	-13239
▁بپاشی	-13240
▁بچائی	-13241
▁بچانا	-13242
▁بھرنے	-13243
▁دھائی	-13244
▁رومال	-13245
▁زنداں	-13246
▁سجایا	-13247
▁سنانے	-13248
▁سکولی	-13249
▁عاصمہ	-13250
▁لسانی	-13251
▁لواری	-13252
▁مارتے	-13253
▁مارنا	-13254
▁ماریں	-13255
▁مرکوز	-13256
▁مناتی	-13257
▁میڈیم	-13258
▁پڑتال	-13259
▁چاروں	-13260
▁چھوڑے	-13261
▁ڈالنا	-13262
▁کارلو	-13263
بادشاہت	-13264
بانیقطر	-13265
▁ادھورے	-13266
▁رہتاہے	-13267
▁سانحات	-13268
▁سرمائے	-13269
▁سزایئں	-13270
▁سعودیہ	-13271
▁سفارشی	-13272
▁سنادیا	-13273
▁سنہالا	-13274
▁سوئیڈن	-13275
▁سوالوں	-13276
▁سونپنے	-13277
▁سونپیں	-13278
▁سٹوڈنٹ	-13279
▁سٹیگما	-13280
▁سکھائی	-13281
▁سیاحتی	-13282
▁سینئرز	-13283
▁سیکوئل	-13284
▁سیکولر	-13285
▁سیکڑوں	-13286
▁سیکھیں	-13287
▁سےانڈے	-13288
▁سےبہتر	-13289
▁سےپہنچ	-13290
▁شاعرکو	-13291
▁شاہراہ	-13292
▁شرمیلے	-13293
▁شریفیہ	-13294
▁شمولیت	-13295
▁شوسینا	-13296
▁شکرمیں	-13297
▁شہزادی	-13298
▁صالحین	-13299
سکین	-13300
▁راگ	-13301
▁لسٹ	-13302
▁مضر	-13303
▁گسٹ	-13304
▁الخط	-13305
▁اپلے	-13306
▁جوکہ	-13307
▁لائم	-13308
▁وسال	-13309
▁ٹیوب	-13310
▁چھری	-13311
▁گاتی	-13312
عدگیوں	-13313
▁بالوں	-13314
▁بلاتی	-13315
▁تسکین	-13316
▁سواتی	-13317
▁فاصلے	-13318
▁ہارکا	-13319
▁بالروں	-13320
▁بینائی	-13321
▁حوالات	-13322
▁خوبیاں	-13323
▁سلاجقہ	-13324
▁صحافتی	-13325
▁طبقاتی	-13326
▁طیاروں	-13327
▁عادتوں	-13328
▁عبرانی	-13329
▁علامتی	-13330
▁علمائے	-13331
▁علمانہ	-13332
▁فالودہ	-13333
▁فرماتا	-13334
▁فشانوں	-13335
▁فعالیت	-13336
▁فلورین	-13337
▁فٹبالر	-13338
▁فگاروں	-13339
▁فہمیدہ	-13340
▁فیملیز	-13341
▁قائدین	-13342
▁قربتیں	-13343
▁قیدیوں	-13344
▁لائیئے	-13345
▁لاشاری	-13346
▁لاکھڑا	-13347
▁لٹکایا	-13348
▁لڑکیوں	-13349
▁لکڑیاں	-13350
▁لگارہے	-13351
▁لگوانے	-13352
▁لہرانے	-13353
▁لیااور	-13354
▁لیسسٹر	-13355
▁لیوائز	-13356
▁لیڈرشپ	-13357
▁مارکسی	-13358
▁مالکان	-13359
▁مالیات	-13360
▁ماندگی	-13361
▁ماپوچے	-13362
▁مبارکب	-13363
▁مبارکہ	-13364
▁مجسموں	-13365
▁محاصرہ	-13366
▁محاورہ	-13367
▁محبوبہ	-13368
▁محترمہ	-13369
▁مراعات	-13370
▁مراکشی	-13371
▁مروڑنا	-13372
▁مزارات	-13373
▁مزیداس	-13374
▁مسابقت	-13375
▁مساوات	-13376
▁مساکین	-13377
▁مسلمات	-13378
▁مشاہدی	-13379
▁مشکبار	-13380
▁مشہوری	-13381
▁مصنفین	-13382
▁مضائقہ	-13383
▁مضمرات	-13384
▁مطالبے	-13385
▁مطلوبہ	-13386
▁معاشرت	-13387
▁معجزوں	-13388
▁مفتیوں	-13389
▁ملائکہ	-13390
▁ملزملا	-13391
▁ملیریا	-13392
▁ممحفوظ	-13393
▁ممکنات	-13394
▁منافعے	-13395
▁منزلوں	-13396
▁منظروہ	-13397
▁موافقت	-13398
▁موتیوں	-13399
▁مودودی	-13400
▁موراکو	-13401
▁موقعوں	-13402
▁مکینوں	-13403
▁میسنجر	-13404
▁میٹرکا	-13405
▁میکائل	-13406
▁میگزین	-13407
▁میںبند	-13408
▁ناجائز	-13409
▁نارائن	-13410
▁ناکامئ	-13411
▁نبھاتے	-13412
▁نبھانا	-13413
▁نبھانے	-13414
▁نشریات	-13415
▁نشستوں	-13416
▁نظربھی	-13417
▁نمونوں	-13418
▁ننھیال	-13419
▁نوارنی	-13420
▁نوبہار	-13421
▁نگاراں	-13422
▁نگاروں	-13423
▁نہلانا	-13424
▁نیکیوں	-13425
▁نےمحمد	-13426
▁وائرسز	-13427
▁وائٹنگ	-13428
▁واجباد	-13429
▁والکنگ	-13430
▁والےہر	-13431
▁وزرائے	-13432
▁ولیمسن	-13433
▁ومعیشت	-13434
▁ویتنام	-13435
▁ویسےہی	-13436
▁ویمبلے	-13437
▁ویڈٹیک	-13438
▁ویڈیوز	-13439
▁ٹائروں	-13440
▁ٹرانزٹ	-13441
▁ٹورمیچ	-13442
▁ٹوپیاں	-13443
▁ٹھہرنے	-13444
▁ٹہنیوں	-13445
▁ٹیکساس	-13446
▁ٹیکسلا	-13447
▁پارٹیز	-13448
▁پارکنگ	-13449
▁پاسدار	-13450
▁پرابلم	-13451
▁پرستوں	-13452
▁پرسندھ	-13453
▁پروموٹ	-13454
▁پرچلتا	-13455
▁پریمیر	-13456
▁پسندوں	-13457
▁پلیئرز	-13458
▁پورےبگ	-13459
▁پوزیگا	-13460
▁پولٹکس	-13461
▁پونٹنگ	-13462
▁پوچھتی	-13463
▁پوچھوں	-13464
▁پوچھیں	-13465
▁پویلین	-13466
▁پویٹکن	-13467
▁پڑھانے	-13468
▁پھراتی	-13469
▁پھرکیا	-13470
▁پھولنے	-13471
▁پہنچیں	-13472
▁پیرائے	-13473
▁پیشانی	-13474
▁پینتیس	-13475
▁پینلوں	-13476
▁چارجنگ	-13477
▁چالباز	-13478
▁چومکھی	-13479
▁چڑھائی	-13480
▁چڑھاوا	-13481
▁چھوڑتا	-13482
▁چھوڑتے	-13483
▁چھوڑیں	-13484
▁چھپائے	-13485
▁چھڑایا	-13486
▁چھیڑتے	-13487
▁چینلوں	-13488
▁چیوینگ	-13489
▁ڈائمنڈ	-13490
▁ڈاکوٹا	-13491
▁ڈاکٹرس	-13492
▁ڈنمارک	-13493
▁ڈھالیں	-13494
▁ڈھانپے	-13495
▁ڈھونڈی	-13496
▁ڈھونڈے	-13497
▁ڈھٹائی	-13498
▁ڈیمانڈ	-13499
▁ڈےکرکٹ	-13500
▁کاقبضہ	-13501
▁کاقیام	-13502
▁کالعدم	-13503
▁کالموں	-13504
▁کامران	-13505
▁کامطلب	-13506
▁کامیڈی	-13507
▁کاندھا	-13508
▁کاپٹرز	-13509
▁کاکوٹہ	-13510
▁کترینہ	-13511
▁کرادیا	-13512
▁کرجاتے	-13513
▁کرخفیہ	-13514
▁کررجوع	-13515
▁کرسیاں	-13516
▁کرنیکا	-13517
▁کرنےکا	-13518
▁کروائئ	-13519
▁کرواتی	-13520
▁کرونگی	-13521
▁کرینگے	-13522
▁کلاسرا	-13523
▁کلپرٹن	-13524
▁کلہاڑا	-13525
▁کمالات	-13526
▁کمپوٹر	-13527
▁کنوئیں	-13528
▁کنٹینر	-13529
▁کوالٹی	-13530
▁کوبخار	-13531
▁کوسیمی	-13532
▁کولمبو	-13533
▁کومعطل	-13534
▁کوچیور	-13535
▁کوکرنا	-13536
▁کوکہتے	-13537
▁کویقین	-13538
▁کھائیں	-13539
▁کھدائی	-13540
▁کھلائے	-13541
▁کھلاتے	-13542
▁کھلانا	-13543
▁کھودنا	-13544
▁کھولتا	-13545
▁کھولنا	-13546
▁کھولنے	-13547
▁کھولیں	-13548
▁کھینچی	-13549
▁کہلاتے	-13550
▁کیلشیم	-13551
▁کیمپوں	-13552
▁کیمیکل	-13553
▁کےخلاف	-13554
▁کےعلاج	-13555
▁گائےکے	-13556
▁گردشوں	-13557
▁گرمانے	-13558
▁گرویدہ	-13559
▁گریزاں	-13560
▁گزرگاہ	-13561
▁گفتاری	-13562
▁گلیکسی	-13563
▁گنگولی	-13564
▁گورننگ	-13565
▁گیلانی	-13566
▁ہارگیا	-13567
▁ہتھیلی	-13568
▁ہدایات	-13569
▁ہراساں	-13570
▁ہمکنار	-13571
▁ہندودش	-13572
▁ہوائیں	-13573
▁ہوجایا	-13574
▁ہوسپٹل	-13575
▁ہوسکتے	-13576
▁ہوشیار	-13577
▁ہولڈرز	-13578
▁ہونےتک	-13579
▁ہہنیاں	-13580
▁ہیمبرگ	-13581
▁ہیمپٹن	-13582
▁ہیڈکوچ	-13583
▁ہےاظہر	-13584
▁یروشلم	-13585
▁یوروپی	-13586
▁یورپین	-13587
▁یکسمتی	-13588
اتادربار	-13589
الاقوامی	-13590
راورریال	-13591
رزایسوسی	-13592
سوچتاہوں	-13593
صہبیئونٹ	-13594
لیفورنیا	-13595
کاافتتاح	-13596
کھلاڑیوں	-13597
گرونالڈو	-13598
یراخلاقی	-13599
▁ائرلائن	-13600
▁ائیسویں	-13601
▁ابراھیم	-13602
▁احتجاجا	-13603
▁اختلافی	-13604
▁اخراپنے	-13605
▁ادائیاں	-13606
▁اراپاہو	-13607
▁ارضیاتی	-13608
▁ازادیاں	-13609
▁ازدواجی	-13610
▁استحصال	-13611
▁استعارہ	-13612
▁استعمار	-13613
▁استفادہ	-13614
▁اسلامسٹ	-13615
▁اسٹائلش	-13616
▁اسٹوڈیو	-13617
▁اسپانسر	-13618
▁اسپورٹس	-13619
▁اسڑیلوی	-13620
▁اسکیموں	-13621
▁اعلامیے	-13622
▁اعلانچی	-13623
▁اقلیتوں	-13624
▁البانیہ	-13625
▁الجزائر	-13626
▁الجیریا	-13627
▁الحکومت	-13628
▁الرویلی	-13629
▁العربیہ	-13630
▁المونیم	-13631
▁امرالہی	-13632
▁امیتابھ	-13633
▁امیدوار	-13634
▁اناونسر	-13635
▁انتھونی	-13636
▁انجلینا	-13637
▁انعامات	-13638
▁انٹیگوا	-13639
▁انکےلئے	-13640
▁انہوںنے	-13641
▁اورجنات	-13642
▁اورجنون	-13643
▁اوررونا	-13644
▁اورشاید	-13645
▁اورفتوی	-13646
▁اورمیرا	-13647
▁اورکرپٹ	-13648
▁اورکریں	-13649
▁اورہوتی	-13650
▁اولادوں	-13651
▁اولمپئن	-13652
▁اٹلانٹا	-13653
▁اکیسویں	-13654
▁اہلخانہ	-13655
▁ایمبیسی	-13656
▁ایمرجنگ	-13657
▁اینسروڈ	-13658
▁بائیکاٹ	-13659
▁باربودا	-13660
▁بارعلما	-13661
▁بارہویں	-13662
▁بارےمیں	-13663
▁باقائدہ	-13664
▁بالینیز	-13665
▁بانڈزکا	-13666
▁بداعمال	-13667
▁براجمان	-13668
▁برقیائی	-13669
▁بروکروں	-13670
▁بروکلین	-13671
▁بلدیاتی	-13672
▁بنادیئے	-13673
▁بڑھادیں	-13674
▁بڑھوتری	-13675
▁بیشتختے	-13676
▁بیلجیئن	-13677
▁تائیوان	-13678
▁تاریخیں	-13679
▁تاویلیں	-13680
▁تجزیاتی	-13681
▁تحریریں	-13682
▁تحریکیں	-13683
▁ترجمانی	-13684
▁تریشالا	-13685
▁تشبیہات	-13686
▁تصویروں	-13687
▁تعبیرات	-13688
▁تعمیرات	-13689
▁تقریریں	-13690
▁تلواریں	-13691
▁تمنائیں	-13692
▁تنازعات	-13693
▁توچاردی	-13694
▁تھمادیا	-13695
▁جدائیاں	-13696
▁جمائیکا	-13697
▁جمالیات	-13698
▁جواخانہ	-13699
▁جھنجھوڑ	-13700
▁جھٹلایا	-13701
▁جھینگوں	-13702
▁حیاتیات	-13703
▁حیرانکن	-13704
▁حیوانات	-13705
▁خراسانی	-13706
▁خصوصیات	-13707
▁خواہانہ	-13708
▁دولتانہ	-13709
▁دوگھنٹے	-13710
▁دکھائیں	-13711
▁دھمکیوں	-13712
▁دیواروں	-13713
▁دیوبندی	-13714
▁رائیڈنگ	-13715
▁رائیگاں	-13716
▁رعایتیں	-13717
▁روزسکول	-13718
▁رومانڈی	-13719
▁رپورٹوں	-13720
▁رکانوٹس	-13721
▁رہنماوں	-13722
▁ریاستوں	-13723
▁ریاستیں	-13724
▁ریفرنڈم	-13725
▁ریپبلکن	-13726
▁زنجیروں	-13727
▁ساتھیوں	-13728
▁ستیاناس	-13729
▁سجادیئے	-13730
▁سربیائی	-13731
▁سرفروشی	-13732
▁سرگرداں	-13733
▁سفارشات	-13734
▁سلوینیا	-13735
▁سماعتیں	-13736
▁سمجھاتا	-13737
▁سنبھالی	-13738
▁سنمبھال	-13739
▁سنگریزے	-13740
▁سولائزڈ	-13741
▁سپاہیوں	-13742
▁سکھلائے	-13743
▁سیکٹرکی	-13744
▁سیکھاتے	-13745
▁شانداری	-13746
▁شاہینوں	-13747
▁شرارتیں	-13748
▁شعرکہنا	-13749
▁شماریات	-13750
▁شناسائی	-13751
▁شکارپور	-13752
▁شکاریوں	-13753
▁صحافیوں	-13754
▁ضرورتوں	-13755
▁عاشقانہ	-13756
▁عالمگیر	-13757
▁عصبیتوں	-13758
▁علیحدگی	-13759
▁عمراکمل	-13760
▁عیاشیوں	-13761
▁عیسائیت	-13762
▁فائیٹرز	-13763
▁فارمولا	-13764
▁فارمولہ	-13765
▁فارمولے	-13766
▁فریزروں	-13767
▁فضولیات	-13768
▁فنانسنگ	-13769
▁فیالوقت	-13770
▁فیڈریشن	-13771
▁قصوروار	-13772
▁لامحدود	-13773
▁لانڈرنگ	-13774
▁لاچاروں	-13775
▁لواحقین	-13776
▁لگاکیوں	-13777
▁لہلہاتے	-13778
▁لیتےہیں	-13779
▁لیگویمن	-13780
▁مانیٹری	-13781
▁محافظان	-13782
▁محکوموں	-13783
▁مدھالیر	-13784
▁مراعاتی	-13785
▁مرسینجا	-13786
▁مسلمانی	-13787
▁مسکراتی	-13788
▁مسیحائی	-13789
▁مشتاقاں	-13790
▁معاہدوں	-13791
▁معیشتوں	-13792
▁مفاداتی	-13793
▁مفتوحین	-13794
▁مقتدروں	-13795
▁منفردتہ	-13796
▁مچھلیاں	-13797
▁مکینیکل	-13798
▁مینجمنٹ	-13799
▁میٹیریل	-13800
▁میںجائے	-13801
▁میںصحیح	-13802
▁میںکرنے	-13803
▁نادہندہ	-13804
▁نامعلوم	-13805
▁ناموافق	-13806
▁ناپسندی	-13807
▁ناچاہتے	-13808
▁نرسریاں	-13809
▁نصیحتیں	-13810
▁نمازیوں	-13811
▁ننجیانی	-13812
▁نگہبانئ	-13813
▁نہیںاتی	-13814
▁نہیںنجم	-13815
▁نیوزفیڈ	-13816
▁نےجاپان	-13817
▁وحدانیت	-13818
▁ویبسائٹ	-13819
▁ویرانوں	-13820
▁ویلفیئر	-13821
▁ویلٹائن	-13822
▁ٹرانسفر	-13823
▁ٹربیونل	-13824
▁ٹرنباگو	-13825
▁ٹنڈولکر	-13826
▁ٹھکرادی	-13827
▁ٹیلیریٹ	-13828
▁ٹیکسیاں	-13829
▁ٹیکنیکل	-13830
▁ٹیکٹونک	-13831
▁پارٹیوں	-13832
▁پرائیوٹ	-13833
▁پراجیکٹ	-13834
▁پراسرار	-13835
▁پرسبسڈی	-13836
▁پروفیشن	-13837
▁پسندیدہ	-13838
▁پسٹوریس	-13839
▁پھرتاہے	-13840
▁پھرحرمت	-13841
▁پھیلائے	-13842
▁پھینکیں	-13843
▁پہلوئوں	-13844
▁پہنچانا	-13845
▁پہنچانی	-13846
▁پہنچانے	-13847
▁پیشگوئی	-13848
▁چارپائی	-13849
▁چھٹکارا	-13850
▁چھپواتے	-13851
▁چیلنجوں	-13852
▁ڈائیلاگ	-13853
▁ڈائیورز	-13854
▁ڈائیونگ	-13855
▁ڈرافٹنگ	-13856
▁ڈھانپتے	-13857
▁ڈھنڈورا	-13858
▁ڈھونڈنے	-13859
▁کاخصوصی	-13860
▁کارفرما	-13861
▁کارنامے	-13862
▁کاشیڈول	-13863
▁کامحبوب	-13864
▁کامرکزی	-13865
▁کرتاتھا	-13866
▁کرتےہیں	-13867
▁کرنسیوں	-13868
▁کرکٹرہے	-13869
▁کلاسیکی	-13870
▁کمبوڈیا	-13871
▁کمکموڈو	-13872
▁کمیونٹی	-13873
▁کمیٹیوں	-13874
▁کنفیوزڈ	-13875
▁کنونشنز	-13876
▁کنٹریکٹ	-13877
▁کنڈیشنڈ	-13878
▁کوریائی	-13879
▁کوموروس	-13880
▁کوورونا	-13881
▁کٹاکانا	-13882
▁کپچیلسی	-13883
▁کھجیندر	-13884
▁کھلوایا	-13885
▁کھلونوں	-13886
▁کھنگالا	-13887
▁کھوکھرا	-13888
▁کھٹکھٹا	-13889
▁کھیلاجا	-13890
▁کھیلانے	-13891
▁کھینچنے	-13892
▁کہتاتھا	-13893
▁کہلوانا	-13894
▁کیاسعید	-13895
▁کیربئین	-13896
▁کیٹیگری	-13897
▁کےہمراہ	-13898
▁گرفتاری	-13899
▁گھبراتے	-13900
▁گھبراہٹ	-13901
▁گھرپہنچ	-13902
▁گیزپرام	-13903
▁ہتھیایا	-13904
▁ہرجانوں	-13905
▁ہمسایوں	-13906
▁ہورہاہے	-13907
▁ہوسکتیں	-13908
▁ہوگیاجی	-13909
▁ہےقومیت	-13910
▁یشانیوں	-13911
▁یونیورس	-13912
▁یوکرائن	-13913
▁یکسانیت	-13914
ادبرطانوی	-13915
بنانیوالے	-13916
وزیرداخلہ	-13917
▁ائیرپورٹ	-13918
▁اتحادیوں	-13919
▁اتھارٹیز	-13920
▁اداکاراں	-13921
▁اداکاروں	-13922
▁اردوزبان	-13923
▁استخراجی	-13924
▁استدعاکو	-13925
▁استعماری	-13926
▁اسلامیات	-13927
▁اسپیکٹرم	-13928
▁اشتہارات	-13929
▁اشنائیاں	-13930
▁اصطلاحات	-13931
▁اصطلاحیں	-13932
▁اقتدارکا	-13933
▁امرالقیس	-13934
▁امریکانے	-13935
▁امپائرنگ	-13936
▁امیرترین	-13937
▁اندراجات	-13938
▁اندھیروں	-13939
▁انٹرویوز	-13940
▁انگلستان	-13941
▁اوربڑھتی	-13942
▁اورجوانی	-13943
▁اوردوسرا	-13944
▁اورریاست	-13945
▁اورنگزیب	-13946
▁اورگزارش	-13947
▁اوشیانیا	-13948
▁اٹبرازیل	-13949
▁اچھاموسم	-13950
▁ایتھلیٹس	-13951
▁ایتھوپیا	-13952
▁ایجنسیوں	-13953
▁ایسبسٹاس	-13954
▁ایسکارٹس	-13955
▁ایلیانتی	-13956
▁ایمرجنسی	-13957
▁ایٹلیٹکو	-13958
▁ایکسٹریم	-13959
▁ایگزیکٹو	-13960
▁بااختیار	-13961
▁باراتیوں	-13962
▁بارباڈوس	-13963
▁باقاعدگی	-13964
▁بالرزاور	-13965
▁براعظموں	-13966
▁بربادیوں	-13967
▁برتھلیمی	-13968
▁برٹینسکی	-13969
▁بنائےگئے	-13970
▁بنیادتھا	-13971
▁بوسٹنویب	-13972
▁بکھاریوں	-13973
▁بھارتیوں	-13974
▁بھوجپوری	-13975
▁بیکٹیریا	-13976
▁تبدیلیاں	-13977
▁تحقیقاتی	-13978
▁تعمیراتی	-13979
▁تنخواہوں	-13980
▁جائےشاہد	-13981
▁جارہاہوں	-13982
▁جھلملاتی	-13983
▁خاموشیوں	-13984
▁خداوندان	-13985
▁خودکلینک	-13986
▁خوشقسمتی	-13987
▁دانشمندی	-13988
▁دانشوران	-13989
▁دھندلاہٹ	-13990
▁دیانتدار	-13991
▁دیوبندکے	-13992
▁دیکھائیں	-13993
▁رنگینیوں	-13994
▁روحانیات	-13995
▁روزگارکے	-13996
▁رکھنایوم	-13997
▁سائنسدان	-13998
▁سائیکلنگ	-13999
▁سربراہان	-14000
▁سفارتکار	-14001
▁سنبھالنا	-14002
▁سنگاکارا	-14003
▁سوتیعنقا	-14004
▁سوچتارہا	-14005
▁سویتلانا	-14006
▁سپربائیک	-14007
▁سگرٹنوشی	-14008
▁سیلابریز	-14009
▁شوبزڈیسک	-14010
▁صدرالدین	-14011
▁ظاہرکرتے	-14012
▁عمرانیات	-14013
▁فروگزاشت	-14014
▁فضارومان	-14015
▁فلوئیڈمے	-14016
▁فیچرزاور	-14017
▁قاعدگیوں	-14018
▁قبلازوقت	-14019
▁لمحےفراق	-14020
▁لکھاریوں	-14021
▁مائیگرین	-14022
▁مارکیٹوں	-14023
▁مالاخوفا	-14024
▁مانچسٹری	-14025
▁مبارکباد	-14026
▁محمدحفیظ	-14027
▁محمدعباس	-14028
▁مداخلتوں	-14029
▁مشہورقصہ	-14030
▁مصروفیات	-14031
▁مظلومانہ	-14032
▁منگوائیں	-14033
▁میراہاتھ	-14034
▁میٹسوبشی	-14035
▁میڈیاسیل	-14036
▁نایابنسل	-14037
▁نشوزنہیں	-14038
▁نمائندوں	-14039
▁نکیرہستہ	-14040
▁نہاتاہوں	-14041
▁نیتاراجا	-14042
▁نیوکلیئر	-14043
▁وجودسارے	-14044
▁وزیرستان	-14045
▁ونٹیلیٹر	-14046
▁ٹکنالوجی	-14047
▁پرتگالین	-14048
▁پرزوردار	-14049
▁پرفارمنس	-14050
▁پروسیسرز	-14051
▁پروڈیوسر	-14052
▁پرپابندی	-14053
▁پسندیدگی	-14054
▁پوراکرنے	-14055
▁پہلوانوں	-14056
▁پہنچادیا	-14057
▁پیراشوٹر	-14058
▁ڈومینیکن	-14059
▁ڈھونڈئیے	-14060
▁ڈیزائنرز	-14061
▁ڈیسکگوگل	-14062
▁ڈیلیگیشن	-14063
▁ڈیولپمنٹ	-14064
▁کااختتام	-14065
▁کاروکاری	-14066
▁کارڈیشین	-14067
▁کاریکارڈ	-14068
▁کبھارکسی	-14069
▁کشمیریوں	-14070
▁کیربیئنز	-14071
▁کیربینئز	-14072
▁کیریبیئن	-14073
▁کیلانتان	-14074
▁کیونکہکی	-14075
▁ھسپتالوں	-14076
▁ہارڈوئیر	-14077
▁ہارڈویئر	-14078
▁ہردلعزیز	-14079
▁ہمسائیگی	-14080
▁ہنرمندوں	-14081
▁ہوجائےگا	-14082
▁ہونڈاروس	-14083
▁ہےاکسفیم	-14084
▁یونائٹیڈ	-14085
اورمرکرائے	-14086
بیوروکریسی	-14087
واراڑتالیس	-14088
چاہیےہارون	-14089
▁افراتفریح	-14090
▁الامرابطی	-14091
▁الیکٹرانک	-14092
▁انجینئرنگ	-14093
▁انجینیرنگ	-14094
▁انقلابیوں	-14095
▁اوربرادری	-14096
▁اورمحاورہ	-14097
▁اورملزمان	-14098
▁اورمنصفین	-14099
▁اوپنفائنل	-14100
▁اٹھارہویں	-14101
▁اڈیشنزمیں	-14102
▁ایسپرانٹو	-14103
▁ایلومینیم	-14104
▁اینڈرائیڈ	-14105
▁اینیمیٹیڈ	-14106
▁ایکڑبحریہ	-14107
▁باکسرمحمد	-14108
▁بحرالکاہل	-14109
▁برازاویلے	-14110
▁بلائےجاتے	-14111
▁بورڈوزارت	-14112
▁بیساکھیوں	-14113
▁تیارکررہے	-14114
▁جائیدادیں	-14115
▁خاطرلوگوں	-14116
▁داتادربار	-14117
▁دارلحکومت	-14118
▁دھوکےبازی	-14119
▁زڈیسکپورا	-14120
▁سفارتخانے	-14121
▁سندھپنجاب	-14122
▁شکستسیریز	-14123
▁طالبعلموں	-14124
▁عبدالستار	-14125
▁عبدالقیوم	-14126
▁لاہورقومی	-14127
▁لیمہمانوں	-14128
▁لےکرجائیں	-14129
▁مسکراہٹیں	-14130
▁منشامعلوم	-14131
▁منصوراحمد	-14132
▁نااشناہیں	-14133
▁نصیرالدین	-14134
▁نوابادیات	-14135
▁نواجوانوں	-14136
▁نوٹیفکیشن	-14137
▁والازلزلہ	-14138
▁والےافراد	-14139
▁وزیرخارجہ	-14140
▁وزیرخزانہ	-14141
▁پارلیمانی	-14142
▁پاکستانیت	-14143
▁پاکستانیو	-14144
▁پراپیگنڈا	-14145
▁پروگراموں	-14146
▁پریشانیوں	-14147
▁پولینیشیا	-14148
▁پیداہونگی	-14149
▁پیٹرساگان	-14150
▁چارپائیوں	-14151
▁چالبازیوں	-14152
▁چندمسلمان	-14153
▁ڈےانگلینڈ	-14154
▁کاانتظامی	-14155
▁کارلوٹینس	-14156
▁کارپوریشن	-14157
▁کامیابیوں	-14158
▁کانفرنسنگ	-14159
▁کراسکتاہے	-14160
▁کرلیتےہیں	-14161
▁کرنالازمی	-14162
▁کمپیوٹرکو	-14163
▁کھانےپینے	-14164
▁کیاجاسکتا	-14165
▁گورداسپور	-14166
▁ہالیگینون	-14167
▁ہزارافراد	-14168
▁ہندوستانی	-14169
▁یہاںتحقیق	-14170
▁اترنےکیلئے	-14171
▁انٹارکٹیکا	-14172
▁انکارکردیا	-14173
▁اورڈیوٹیاں	-14174
▁بائیومکینک	-14175
▁باہرمداحوں	-14176
▁بحرانمعمول	-14177
▁بیوروکریسی	-14178
▁بیوورکریٹس	-14179
▁توپسندیدگی	-14180
▁تھےاداکارہ	-14181
▁تیسرامسئلہ	-14182
▁حمایتیافتہ	-14183
▁خریدوفروخت	-14184
▁دارالحکومت	-14185
▁دانشمندانہ	-14186
▁سرفرازدورہ	-14187
▁سیریزاسٹار	-14188
▁شاہدافریدی	-14189
▁علمبرداروں	-14190
▁لاہوردھرنے	-14191
▁لیگافتتاحی	-14192
▁لیگرونالڈو	-14193
▁مسافربردار	-14194
▁مشینوںسولر	-14195
▁ملزملازمین	-14196
▁میزبانیقطر	-14197
▁میںبادشاہت	-14198
▁کمیٹیوزارت	-14199
▁کیلیفورنیا	-14200
▁کےکھلاڑیوں	-14201
▁ہرزیگووینا	-14202
▁اقتدارتبدیل	-14203
▁امریکاشمالی	-14204
▁انعقادپیوٹن	-14205
▁انفراسٹرکچر	-14206
▁ایسےالزامات	-14207
▁ایوارڈکیلئے	-14208
▁بینالاقوامی	-14209
▁تولاقانونیت	-14210
▁توچاردیواری	-14211
▁طاہرالقادری	-14212
▁فرانسسائیکل	-14213
▁فٹبالٹوٹنہم	-14214
▁مائیکروسوفٹ	-14215
▁مسلماںحکومت	-14216
▁میںسوچتاہوں	-14217
▁واجبادائیگی	-14218
▁وزیراطلاعات	-14219
▁پشاورسبزیوں	-14220
▁کوارٹرفائنل	-14221
▁کوالیفائینگ	-14222
▁کولاقانونیت	-14223
▁ریفریجریٹروں	-14224
▁ڈاکٹرابراہیم	-14225
▁کرینگےسرفراز	-14226
▁فٹبالرزایسوسی	-14227
▁لمیٹڈکاافتتاح	-14228
▁مبارکبادتقریب	-14229
▁پرڈالراورریال	-14230
▁جاناچاہیےہارون	-14231
▁پیداواراڑتالیس	-14232
▁مانچسٹریونائیٹڈ	-14233
▁کرگئےاورمرکرائے	-14234
اضے	-14235
اپی	-14236
اچہ	-14237
ایف	-14238
بضہ	-14239
بچن	-14240
بڑھ	-14241
تقا	-14242
جرک	-14243
جمے	-14244
حاظ	-14245
حشت	-14246
خلت	-14247
زوق	-14248
سڈی	-14249
شخب	-14250
صدح	-14251
صلت	-14252
عنو	-14253
فعہ	-14254
فقا	-14255
لحہ	-14256
لخی	-14257
لٹے	-14258
مشا	-14259
مٹے	-14260
مپر	-14261
مپس	-14262
مپک	-14263
وپی	-14264
وچے	-14265
وگا	-14266
ٹمز	-14267
پرٹ	-14268
پرڈ	-14269
کپم	-14270
کپک	-14271
کچر	-14272
گٹے	-14273
گھل	-14274
ہمر	-14275
یحت	-14276
یفے	-14277
ائسن	-14278
اختہ	-14279
ارمر	-14280
اضری	-14281
اضوں	-14282
اعدہ	-14283
اعدے	-14284
افظے	-14285
الحک	-14286
الحہ	-14287
المے	-14288
امعہ	-14289
انحہ	-14290
انسز	-14291
انپٹ	-14292
انڈو	-14293
انڈی	-14294
انکپ	-14295
اہےک	-14296
بادش	-14297
بردی	-14298
بلکن	-14299
بشر	-14300
بھل	-14301
تحص	-14302
رٹن	-14303
قصد	-14304
وگو	-14305
پتھ	-14306
گوگ	-14307
ہجے	-14308
امسئ	-14309
انکش	-14310
اورم	-14311
بروج	-14312
بوطی	-14313
بھال	-14314
تاحی	-14315
تناک	-14316
تھیا	-14317
تیاب	-14318
تےگا	-14319
جباد	-14320
جحان	-14321
جھیے	-14322
جیند	-14323
حاور	-14324
حکوم	-14325
خاوت	-14326
خرزم	-14327
خلیق	-14328
خواہ	-14329
دالق	-14330
دردی	-14331
دمات	-14332
دوین	-14333
راشا	-14334
راشے	-14335
رافٹ	-14336
راٹے	-14337
ردلع	-14338
رستی	-14339
رضوں	-14340
روسز	-14341
روضے	-14342
رڈال	-14343
رڈسن	-14344
ریحی	-14345
ریٹن	-14346
ریچے	-14347
سابی	-14348
سلسل	-14349
سنیل	-14350
سیحا	-14351
سیحی	-14352
شانک	-14353
شاور	-14354
صابی	-14355
طبیع	-14356
طخیں	-14357
طراف	-14358
طینہ	-14359
ظامی	-14360
ظریہ	-14361
ظیفہ	-14362
علاج	-14363
فاتر	-14364
فاخو	-14365
فاہی	-14366
فتگو	-14367
فیشل	-14368
قاعد	-14369
قامی	-14370
قدان	-14371
قدین	-14372
لائق	-14373
لتوں	-14374
لوبہ	-14375
لڈکپ	-14376
لکتی	-14377
لیڈی	-14378
لیگز	-14379
ماشہ	-14380
منگھ	-14381
مپئن	-14382
مپوں	-14383
مپکس	-14384
ناسب	-14385
نالو	-14386
نبیر	-14387
ندرگ	-14388
نستا	-14389
نوعی	-14390
نیڈا	-14391
نیکا	-14392
واہی	-14393
وتاک	-14394
وسٹن	-14395
ولمپ	-14396
ونجے	-14397
ونڈا	-14398
ونڈو	-14399
اڑد	-14400
تجا	-14401
جمن	-14402
جوک	-14403
حمن	-14404
دھا	-14405
رچا	-14406
زعہ	-14407
سجا	-14408
شیڈ	-14409
وجو	-14410
گاڑ	-14411
یچا	-14412
▁ھز	-14413
ئلوں	-14414
ائجو	-14415
الٹن	-14416
اکشی	-14417
بادہ	-14418
برٹو	-14419
ریجا	-14420
ریشی	-14421
سلوں	-14422
شیار	-14423
لاجا	-14424
لیفہ	-14425
ماکہ	-14426
مبلڈ	-14427
نماں	-14428
وتھا	-14429
ولمب	-14430
ونچا	-14431
ونڈی	-14432
ونگی	-14433
وڑیں	-14434
ٹائٹ	-14435
ٹامن	-14436
ٹاپے	-14437
ٹاگر	-14438
ٹنوی	-14439
ٹکوس	-14440
ٹیکا	-14441
پرام	-14442
پناٹ	-14443
پنڈی	-14444
پٹرز	-14445
پیکا	-14446
چلتا	-14447
چھیے	-14448
ڈئیے	-14449
ڈزکا	-14450
ڈیوز	-14451
ڑپنا	-14452
ڑکوں	-14453
کائو	-14454
کافی	-14455
کاہل	-14456
کباد	-14457
کریہ	-14458
کسزم	-14459
کندر	-14460
کٹوں	-14461
کپور	-14462
کھٹے	-14463
گاہے	-14464
گرٹن	-14465
گزار	-14466
گزنڈ	-14467
ھارک	-14468
ھالو	-14469
ھاوا	-14470
ھلتے	-14471
ھلنا	-14472
ھورا	-14473
ہاہے	-14474
ہورق	-14475
یئنز	-14476
یتھو	-14477
یدھا	-14478
یراخ	-14479
یراٹ	-14480
یمرل	-14481
یمنز	-14482
ینجر	-14483
یکٹو	-14484
ےایف	-14485
▁ئیح	-14486
▁اڑت	-14487
▁بزر	-14488
▁بشم	-14489
▁بگو	-14490
▁تضح	-14491
▁تفہ	-14492
▁جمش	-14493
▁خدم	-14494
▁خشو	-14495
▁دسو	-14496
▁دشو	-14497
▁رجس	-14498
▁ردع	-14499
اگل	-14500
اگم	-14501
نشل	-14502
وصی	-14503
وظہ	-14504
ڑھا	-14505
ےوہ	-14506
ےہی	-14507
ارڈو	-14508
اعلی	-14509
اعیں	-14510
اگتے	-14511
تاہے	-14512
جیدہ	-14513
خوبی	-14514
قیدہ	-14515
لاہے	-14516
میرم	-14517
ناہی	-14518
ناہے	-14519
ورہی	-14520
ورہے	-14521
وصلے	-14522
ونہی	-14523
ویزک	-14524
ھونا	-14525
ہےوہ	-14526
یاہے	-14527
▁بکس	-14528
▁تفس	-14529
▁رشت	-14530
▁رمض	-14531
▁رکش	-14532
▁سلگ	-14533
▁شیڈ	-14534
▁عاق	-14535
▁عرص	-14536
▁عنو	-14537
▁فلن	-14538
▁فنک	-14539
▁فکس	-14540
▁قرن	-14541
▁قہق	-14542
▁لاپ	-14543
▁لاگ	-14544
▁لطی	-14545
▁لکش	-14546
▁لہج	-14547
▁نجا	-14548
▁نرگ	-14549
▁نزد	-14550
▁نسو	-14551
▁نصی	-14552
▁وحر	-14553
▁وخش	-14554
▁وشر	-14555
▁وقو	-14556
▁پشا	-14557
▁پکن	-14558
▁چڑچ	-14559
▁چہی	-14560
▁گمر	-14561
▁ںوٹ	-14562
▁ہٹل	-14563
▁یوو	-14564
▁یکط	-14565
ائندہ	-14566
ائیگا	-14567
اتلوں	-14568
اجواب	-14569
احلوں	-14570
ارئین	-14571
ارنٹی	-14572
اروسی	-14573
ارویں	-14574
اریہس	-14575
اقعوں	-14576
اقوام	-14577
الودہ	-14578
الکان	-14579
الیسو	-14580
الیسی	-14581
الیگا	-14582
امدات	-14583
اندنی	-14584
انویت	-14585
انگوں	-14586
اورسب	-14587
اورسے	-14588
اوزکر	-14589
اڑیوں	-14590
اکمیت	-14591
اگلوں	-14592
اہلیت	-14593
اہٹیں	-14594
بارکب	-14595
بھاتے	-14596
بھانے	-14597
بیتوں	-14598
بیتیں	-14599
اطر	-14600
اڑے	-14601
بعی	-14602
رجن	-14603
زیگ	-14604
طعی	-14605
لپا	-14606
معی	-14607
وڑے	-14608
وہد	-14609
پاخ	-14610
پڑے	-14611
کزی	-14612
کڑے	-14613
یجن	-14614
اطمہ	-14615
باعی	-14616
بیعی	-14617
جراں	-14618
جنات	-14619
جنون	-14620
راتف	-14621
راسر	-14622
راپا	-14623
ظہار	-14624
عیشت	-14625
فاعی	-14626
قامت	-14627
لطنت	-14628
مادر	-14629
ماعی	-14630
میزی	-14631
نتائ	-14632
نیجر	-14633
ورپا	-14634
وہات	-14635
پرٹی	-14636
ھیڑے	-14637
ہارپ	-14638
یربح	-14639
یرپا	-14640
یشتخ	-14641
▁جزی	-14642
▁عاط	-14643
▁لمب	-14644
▁مخا	-14645
▁نشی	-14646
▁ڈھو	-14647
▁ڈھک	-14648
▁ڈےو	-14649
▁گڈر	-14650
ائقین	-14651
ارجیا	-14652
بیرات	-14653
تابھب	-14654
تیارک	-14655
جراتی	-14656
جمانی	-14657
جکاری	-14658
جیحات	-14659
جیریا	-14660
ختیار	-14661
خواہی	-14662
داعظم	-14663
دالست	-14664
داللہ	-14665
ددگار	-14666
رائیڈ	-14667
رازاح	-14668
راضات	-14669
راعات	-14670
رانسس	-14671
ربتیں	-14672
رجنسی	-14673
رحدوں	-14674
رزاور	-14675
رمباد	-14676
روازہ	-14677
روساف	-14678
رویدہ	-14679
رپورٹ	-14680
ریتوں	-14681
ریجری	-14682
ریریں	-14683
رینزی	-14684
زامات	-14685
زبانی	-14686
زوئیں	-14687
سائٹی	-14688
سائیڈ	-14689
سایوں	-14690
سریاں	-14691
سمبرا	-14692
سیاتی	-14693
شنگٹن	-14694
شیاری	-14695
شیڈنگ	-14696
ضیاتی	-14697
طانیہ	-14698
ظیموں	-14699
اضا	-14700
بوض	-14701
رزش	-14702
زای	-14703
زرز	-14704
ضبو	-14705
ئیرز	-14706
ائزہ	-14707
اجرز	-14708
بانس	-14709
تبار	-14710
دگار	-14711
دیدد	-14712
رطور	-14713
زبان	-14714
سندی	-14715
ظہبی	-14716
قائد	-14717
لڈرز	-14718
لیرڈ	-14719
مبار	-14720
مندی	-14721
نانچ	-14722
وائز	-14723
ونرز	-14724
ٹائز	-14725
پتان	-14726
کبار	-14727
ہدید	-14728
▁اظہ	-14729
▁تاو	-14730
▁تشد	-14731
▁تشک	-14732
▁تشہ	-14733
▁خرق	-14734
▁داڑ	-14735
▁قزا	-14736
▁مفق	-14737
▁مفل	-14738
ائدکر	-14739
ائنرز	-14740
اہکار	-14741
بارات	-14742
سوسنا	-14743
عامات	-14744
علاوہ	-14745
عیاتی	-14746
فائدہ	-14747
فترپر	-14748
فسیات	-14749
فورال	-14750
فیشنل	-14751
فیکشن	-14752
قیاتی	-14753
لائنس	-14754
لاسرا	-14755
لاسٹک	-14756
لانٹا	-14757
لانیہ	-14758
لتانہ	-14759
لزلوں	-14760
لعزیز	-14761
لمبیا	-14762
لناصر	-14763
لوقات	-14764
لڈینگ	-14765
لکیاں	-14766
لہامی	-14767
لہاڑی	-14768
لیکشن	-14769
مائیک	-14770
مادیا	-14771
ماعیت	-14772
مبارا	-14773
مبارک	-14774
مبلڈن	-14775
مبھیر	-14776
معیشت	-14777
مکنات	-14778
میرات	-14779
نبرین	-14780
نجائش	-14781
نجیدہ	-14782
ندانئ	-14783
نسدان	-14784
نسپور	-14785
نسیوں	-14786
نماوں	-14787
نیشیا	-14788
نےاور	-14789
والفق	-14790
وانڈو	-14791
واڈیل	-14792
وتلیں	-14793
ورنام	-14794
ورپول	-14795
وشیدہ	-14796
وصیات	-14797
ولائز	-14798
ولتوں	-14799
اضی	-14800
رزم	-14801
رکو	-14802
سزم	-14803
طلب	-14804
مزد	-14805
وکو	-14806
ٹزم	-14807
ڈکو	-14808
کوئ	-14809
▁ظہ	-14810
اسکو	-14811
بوئے	-14812
تابچ	-14813
تابھ	-14814
شیوں	-14815
صبات	-14816
ظلوم	-14817
عودی	-14818
قبال	-14819
ٹبال	-14820
ٹرکو	-14821
ٹیشن	-14822
ڈیوں	-14823
کواش	-14824
کوٹر	-14825
یازی	-14826
یرکو	-14827
ینجا	-14828
▁اشی	-14829
▁جھا	-14830
▁جھل	-14831
▁جھن	-14832
▁جھڑ	-14833
▁حقو	-14834
▁ظاہ	-14835
▁ظرا	-14836
▁کنب	-14837
▁کنش	-14838
▁کنک	-14839
ازیوں	-14840
التوں	-14841
التیں	-14842
امیوں	-14843
اہیوں	-14844
بابوب	-14845
باتات	-14846
تیبات	-14847
دریجا	-14848
ردیوں	-14849
روبات	-14850
ریبات	-14851
لوموں	-14852
میتاب	-14853
ندیوں	-14854
ودودی	-14855
ودیوں	-14856
وریشن	-14857
وشیوں	-14858
ونکوں	-14859
وونما	-14860
وکیشن	-14861
وہدری	-14862
ویروں	-14863
ویلیں	-14864
ٹریٹج	-14865
ٹلایا	-14866
ٹوائے	-14867
ٹوالہ	-14868
پاخیر	-14869
پبلکن	-14870
چاھیے	-14871
چرڈسن	-14872
ڈالرا	-14873
ڑھاتے	-14874
کاافت	-14875
کاروب	-14876
کامفہ	-14877
کانات	-14878
کانوٹ	-14879
کراہٹ	-14880
کردگی	-14881
کلامی	-14882
کٹیشن	-14883
کٹیٹر	-14884
کپتان	-14885
کھاڑا	-14886
کیٹوں	-14887
کےباز	-14888
گاراں	-14889
گارکے	-14890
گزنڈر	-14891
گزینڈ	-14892
ھارتی	-14893
ھارکھ	-14894
ہربان	-14895
ہمارے	-14896
ہمیدہ	-14897
یاںبن	-14898
یبتوں	-14899
اضر	-14900
تظر	-14901
خصی	-14902
سلس	-14903
سلک	-14904
شخص	-14905
ضرت	-14906
طرت	-14907
لزل	-14908
لسط	-14909
لسہ	-14910
لسے	-14911
پبل	-14912
ابقہ	-14913
تہاد	-14914
تہار	-14915
جایا	-14916
جبات	-14917
جربہ	-14918
خصیت	-14919
خوار	-14920
ردتہ	-14921
روگز	-14922
شوار	-14923
فیشن	-14924
قابل	-14925
لزلی	-14926
مونی	-14927
ٹایا	-14928
ٹیلز	-14929
گایا	-14930
ھایا	-14931
ھونی	-14932
ینلز	-14933
یکسر	-14934
یکسو	-14935
▁اچن	-14936
▁تجا	-14937
▁تجو	-14938
▁تنق	-14939
▁داع	-14940
▁رخص	-14941
▁سپا	-14942
▁سپل	-14943
▁سپو	-14944
▁سپی	-14945
▁شرع	-14946
▁فتو	-14947
▁مخص	-14948
▁ولس	-14949
▁ٹپک	-14950
▁پوج	-14951
▁پھا	-14952
▁پھن	-14953
▁گوگ	-14954
انونی	-14955
جیندر	-14956
رلینڈ	-14957
لوایا	-14958
گلینڈ	-14959
یتھلی	-14960
یرئین	-14961
یروئی	-14962
یرونی	-14963
یسویں	-14964
یسکبر	-14965
یسیوں	-14966
یشنزم	-14967
یمانڈ	-14968
یمسنگ	-14969
یملیز	-14970
ینارڈ	-14971
یندوں	-14972
یندیں	-14973
ینڈوچ	-14974
ینڈیٹ	-14975
ینیجم	-14976
ینیکل	-14977
یوٹرز	-14978
یکساس	-14979
یکسان	-14980
یکساں	-14981
یکسلا	-14982
یکسیک	-14983
یکٹرک	-14984
یےہار	-14985
▁ائرل	-14986
▁ابوظ	-14987
▁احتج	-14988
▁احتر	-14989
▁احتس	-14990
▁اختت	-14991
▁اراپ	-14992
▁ارتق	-14993
▁ارسط	-14994
▁اریٹ	-14995
▁اسمب	-14996
▁اسپا	-14997
▁اسپن	-14998
▁اشفت	-14999
ئرز	-15000
ئرل	-15001
اوا	-15002
تظم	-15003
لطن	-15004
موز	-15005
نجز	-15006
وئر	-15007
وزا	-15008
وزب	-15009
وزگ	-15010
وزی	-15011
پنج	-15012
ڈوز	-15013
کوا	-15014
یئر	-15015
ادوا	-15016
اموز	-15017
تاتا	-15018
تاوز	-15019
ردوز	-15020
ریئر	-15021
زیگو	-15022
لاتا	-15023
لاتے	-15024
لسوں	-15025
لطان	-15026
میئر	-15027
نجید	-15028
نڈوز	-15029
واتے	-15030
واست	-15031
وزکا	-15032
وزیش	-15033
ھاتے	-15034
ہستہ	-15035
یسنج	-15036
ینئر	-15037
▁اضط	-15038
▁تقا	-15039
▁تقس	-15040
▁تقو	-15041
▁زنج	-15042
▁ماض	-15043
▁ماپ	-15044
▁ماچ	-15045
▁ماڈ	-15046
▁مای	-15047
▁یوا	-15048
ابستہ	-15049
اہداف	-15050
اہورب	-15051
اہورد	-15052
اہورق	-15053
بالرز	-15054
براتا	-15055
براتے	-15056
تاہوں	-15057
رداشت	-15058
رماتا	-15059
رماتے	-15060
روہوں	-15061
لطانہ	-15062
ناہوں	-15063
ورٹنگ	-15064
کھاتا	-15065
کھاتے	-15066
ھراتے	-15067
یدوار	-15068
▁اضطر	-15069
▁اطال	-15070
▁افتخ	-15071
▁اقتص	-15072
▁اقرب	-15073
▁اقلی	-15074
▁الحس	-15075
▁الحک	-15076
▁الشی	-15077
▁العن	-15078
▁المز	-15079
▁الوط	-15080
▁امتز	-15081
▁امرت	-15082
▁امسئ	-15083
▁انجو	-15084
▁انجک	-15085
▁انحص	-15086
▁انعق	-15087
▁اپوز	-15088
▁اچان	-15089
▁اچنب	-15090
▁ایجن	-15091
▁ایلپ	-15092
▁ایمو	-15093
▁ایند	-15094
▁ایڈج	-15095
▁ایگز	-15096
▁بادش	-15097
▁باسک	-15098
▁باشع	-15099
حس	-15100
ئرن	-15101
اول	-15102
تنی	-15103
جاد	-15104
جاہ	-15105
حوم	-15106
خور	-15107
رصہ	-15108
روض	-15109
سکت	-15110
شقت	-15111
قوم	-15112
لسف	-15113
لڑا	-15114
لےر	-15115
مصہ	-15116
میج	-15117
نود	-15118
ودگ	-15119
ومد	-15120
ومو	-15121
ونج	-15122
پتے	-15123
پلز	-15124
چلے	-15125
کبو	-15126
کلے	-15127
کوم	-15128
کیت	-15129
کیم	-15130
ھرم	-15131
ھسپ	-15132
ھلم	-15133
ھود	-15134
ھڑا	-15135
▁یع	-15136
اتیت	-15137
الیت	-15138
انان	-15139
بائی	-15140
ریقے	-15141
سلام	-15142
طریق	-15143
ورہا	-15144
ومتے	-15145
ومنے	-15146
وموں	-15147
ومیں	-15148
چھلے	-15149
کانے	-15150
کران	-15151
ھیپا	-15152
یالے	-15153
یتوں	-15154
ینیک	-15155
▁اسر	-15156
▁اوڑ	-15157
▁تول	-15158
▁تیت	-15159
▁جوک	-15160
▁روج	-15161
▁زاو	-15162
▁فاق	-15163
▁معک	-15164
▁موم	-15165
▁نےپ	-15166
▁وسن	-15167
▁چبھ	-15168
▁ڈیت	-15169
▁کشم	-15170
▁کشک	-15171
▁ہلچ	-15172
ستانپ	-15173
لومات	-15174
ولٹری	-15175
ومکھی	-15176
یحتیں	-15177
▁اکٹھ	-15178
▁بتعد	-15179
▁بداع	-15180
▁براع	-15181
▁بوند	-15182
▁بٹور	-15183
▁بکھی	-15184
▁بگول	-15185
▁بیرک	-15186
▁بیلج	-15187
▁تجار	-15188
▁تداب	-15189
▁تشخی	-15190
▁تشنگ	-15191
▁تصاد	-15192
▁تفتی	-15193
▁تفری	-15194
▁تقاب	-15195
▁تہمت	-15196
▁تیسر	-15197
▁جرنی	-15198
▁جزوق	-15199
ٹف	-15200
ئےم	-15201
ارض	-15202
تاہ	-15203
تون	-15204
دلے	-15205
رنی	-15206
سیئ	-15207
ظلم	-15208
ظیا	-15209
مبی	-15210
ولم	-15211
ونل	-15212
ونچ	-15213
وون	-15214
وکا	-15215
ٹون	-15216
ڈار	-15217
ڑتے	-15218
کھل	-15219
کھو	-15220
ھرب	-15221
ھرح	-15222
ھرے	-15223
یرد	-15224
یرپ	-15225
▁زل	-15226
▁وب	-15227
▁گڑ	-15228
ائلش	-15229
ائیت	-15230
ارکھ	-15231
انون	-15232
اکسر	-15233
تائی	-15234
جودس	-15235
خترا	-15236
دائے	-15237
رائے	-15238
راسٹ	-15239
رفیس	-15240
طائی	-15241
فیات	-15242
لاول	-15243
لزلہ	-15244
لقوں	-15245
لیون	-15246
لیٹن	-15247
نائے	-15248
نجائ	-15249
نگائ	-15250
ولئے	-15251
ونام	-15252
ٹائی	-15253
ٹھیا	-15254
کھار	-15255
کھتے	-15256
کھری	-15257
کھیں	-15258
ھرتی	-15259
ھرنے	-15260
یرول	-15261
ینتی	-15262
یکیش	-15263
▁الد	-15264
▁الن	-15265
▁اکن	-15266
▁تجد	-15267
▁سول	-15268
▁شعا	-15269
▁ظال	-15270
▁نین	-15271
▁نےم	-15272
▁پزد	-15273
▁چون	-15274
▁ڈون	-15275
▁کیج	-15276
▁گاڑ	-15277
الائی	-15278
بھانا	-15279
بھایا	-15280
نگائی	-15281
ٹواری	-15282
ٹوٹنہ	-15283
یشانی	-15284
ینائی	-15285
▁اختی	-15286
▁الائ	-15287
▁ایزن	-15288
▁بہائ	-15289
▁جمیک	-15290
▁جوکو	-15291
▁جھون	-15292
▁جینئ	-15293
▁جیکس	-15294
▁خامش	-15295
▁خدوخ	-15296
▁خشخب	-15297
▁دبائ	-15298
▁دستگ	-15299
ئہ	-15300
بڈ	-15301
طب	-15302
چش	-15303
ادن	-15304
بنگ	-15305
جنگ	-15306
حمی	-15307
دوے	-15308
رحت	-15309
رنے	-15310
روط	-15311
ریض	-15312
سول	-15313
صائ	-15314
طمی	-15315
ظار	-15316
فرو	-15317
لمز	-15318
نار	-15319
نال	-15320
ننگ	-15321
نول	-15322
نگن	-15323
نگھ	-15324
ولب	-15325
ٹمی	-15326
ڈمی	-15327
کٹس	-15328
ھول	-15329
ہنگ	-15330
ہول	-15331
یول	-15332
▁ڈک	-15333
▁ڈگ	-15334
ائزے	-15335
اتاد	-15336
حران	-15337
رزاں	-15338
روںش	-15339
ریمی	-15340
رینگ	-15341
صیرت	-15342
منوں	-15343
میون	-15344
میوں	-15345
نگال	-15346
نگول	-15347
نگین	-15348
وبزڈ	-15349
ولنگ	-15350
ومائ	-15351
ھرتا	-15352
یدھے	-15353
یرون	-15354
ینال	-15355
یویس	-15356
▁ابل	-15357
▁ابہ	-15358
▁اسا	-15359
▁تال	-15360
▁تمی	-15361
▁تنو	-15362
▁خدو	-15363
▁دوک	-15364
▁سلم	-15365
▁شیش	-15366
▁نرس	-15367
▁نید	-15368
▁ٹنگ	-15369
▁پڑت	-15370
▁ھمی	-15371
▁ہمز	-15372
▁ہیج	-15373
ائستہ	-15374
اکاری	-15375
اہراہ	-15376
خابات	-15377
ریکوں	-15378
طریقہ	-15379
لیماں	-15380
نگامی	-15381
▁اراگ	-15382
▁اننگ	-15383
▁تاری	-15384
▁دلجم	-15385
▁دوگھ	-15386
▁دہنا	-15387
▁دہند	-15388
▁دیری	-15389
▁رامپ	-15390
▁راہن	-15391
▁راہگ	-15392
▁روزق	-15393
▁روزگ	-15394
▁روند	-15395
▁رپور	-15396
▁رکاز	-15397
▁ریسل	-15398
▁زاوی	-15399
دک	-15400
گد	-15401
ہچ	-15402
ازش	-15403
اسپ	-15404
امر	-15405
اںج	-15406
اںح	-15407
بید	-15408
تسب	-15409
رسی	-15410
روم	-15411
رپر	-15412
سلا	-15413
سلے	-15414
شمی	-15415
قبت	-15416
مید	-15417
پید	-15418
چھر	-15419
چھو	-15420
چید	-15421
کمہ	-15422
ہیا	-15423
یدک	-15424
یدی	-15425
یدے	-15426
▁زہ	-15427
احمت	-15428
اراں	-15429
ارچھ	-15430
القی	-15431
انگی	-15432
اکار	-15433
جیحی	-15434
خانہ	-15435
صوری	-15436
ظران	-15437
لشیم	-15438
لیقہ	-15439
ندید	-15440
وائے	-15441
ورکر	-15442
ولان	-15443
ونپا	-15444
وٹرو	-15445
چھام	-15446
چھتا	-15447
چھتی	-15448
چھلی	-15449
چھنے	-15450
کائی	-15451
گہوں	-15452
یدنا	-15453
یدھی	-15454
ینڈا	-15455
▁بھٹ	-15456
▁بھک	-15457
▁بیح	-15458
▁تحف	-15459
▁جسی	-15460
▁جوخ	-15461
▁دود	-15462
▁دوپ	-15463
▁دوچ	-15464
▁رائ	-15465
▁رقب	-15466
▁ریڑ	-15467
▁فاس	-15468
▁فین	-15469
▁لود	-15470
▁وسی	-15471
▁ویت	-15472
▁پسی	-15473
▁ہیو	-15474
ربیئن	-15475
وسنیا	-15476
پسندی	-15477
▁ابائ	-15478
▁اشدض	-15479
▁اورل	-15480
▁بےاخ	-15481
▁تصدی	-15482
▁تھاپ	-15483
▁دوان	-15484
▁زبرد	-15485
▁ساتو	-15486
▁سانچ	-15487
▁سراہ	-15488
▁سرسب	-15489
▁سرفر	-15490
▁سرپر	-15491
▁سلاج	-15492
▁سلیق	-15493
▁سماو	-15494
▁سماٹ	-15495
▁سناد	-15496
▁سننھ	-15497
▁سنگی	-15498
▁سنیچ	-15499
بٹ	-15500
چگ	-15501
انش	-15502
اچی	-15503
بھے	-15504
تما	-15505
جرب	-15506
خات	-15507
خاص	-15508
دلا	-15509
دول	-15510
رول	-15511
زائ	-15512
سلہ	-15513
سیق	-15514
شند	-15515
صول	-15516
فاخ	-15517
قیم	-15518
لشن	-15519
لعت	-15520
لوے	-15521
نای	-15522
ندش	-15523
ویے	-15524
گلہ	-15525
یزی	-15526
یمم	-15527
▁زع	-15528
▁صب	-15529
▁صو	-15530
▁صی	-15531
ئیار	-15532
ادکی	-15533
بائے	-15534
شرار	-15535
فائے	-15536
قدار	-15537
لہام	-15538
لہوں	-15539
مائش	-15540
میدہ	-15541
وابط	-15542
وقوں	-15543
وناچ	-15544
یدوں	-15545
یرند	-15546
یمار	-15547
یمان	-15548
ینیم	-15549
▁اوش	-15550
▁جوڈ	-15551
▁خند	-15552
▁زاہ	-15553
▁صاد	-15554
▁طائ	-15555
▁طلا	-15556
▁قیم	-15557
▁کرہ	-15558
▁ہمر	-15559
▁ہےہ	-15560
ازدور	-15561
استان	-15562
جاتاہ	-15563
ختلاف	-15564
لانچی	-15565
وستان	-15566
ولانا	-15567
کستان	-15568
کھائے	-15569
گرامز	-15570
گستان	-15571
یادتی	-15572
یرانک	-15573
▁استخ	-15574
▁اورہ	-15575
▁بنیا	-15576
▁تفصی	-15577
▁توفی	-15578
▁جونی	-15579
▁سرزم	-15580
▁سفرن	-15581
▁سلاس	-15582
▁سونپ	-15583
▁سویڈ	-15584
▁سٹال	-15585
▁سٹرو	-15586
▁سٹیڈ	-15587
▁سپائ	-15588
▁سپرب	-15589
▁سپری	-15590
▁سپیش	-15591
▁سکاٹ	-15592
▁سکرپ	-15593
▁سگری	-15594
▁سہوا	-15595
▁سہول	-15596
▁سیرن	-15597
▁سےخص	-15598
▁سےمق	-15599
طت	-15600
گج	-15601
ںا	-15602
ںف	-15603
ابض	-15604
ادا	-15605
ادش	-15606
ادل	-15607
ادپ	-15608
ادک	-15609
ازگ	-15610
ختل	-15611
خمی	-15612
خیا	-15613
دنی	-15614
زند	-15615
ساد	-15616
ساس	-15617
سمی	-15618
شاد	-15619
شنی	-15620
عوت	-15621
قاب	-15622
لسٹ	-15623
ماد	-15624
میگ	-15625
ندو	-15626
نیج	-15627
نیڈ	-15628
واد	-15629
وجپ	-15630
ٹنی	-15631
کاب	-15632
ھسی	-15633
ھند	-15634
یلٹ	-15635
▁زک	-15636
ئیان	-15637
ائحہ	-15638
ابات	-15639
ابست	-15640
ابلہ	-15641
ابوں	-15642
ابین	-15643
ادار	-15644
ادان	-15645
ارند	-15646
امنی	-15647
تانے	-15648
جھات	-15649
روجہ	-15650
روسو	-15651
رینی	-15652
ریون	-15653
لانٹ	-15654
لپاک	-15655
ندھی	-15656
نیوں	-15657
ونین	-15658
ٹھائ	-15659
پایا	-15660
چھائ	-15661
ھیلا	-15662
▁ارم	-15663
▁باط	-15664
▁تاب	-15665
▁جاد	-15666
▁خاد	-15667
▁راب	-15668
▁ساب	-15669
▁ساد	-15670
▁ضام	-15671
▁چاب	-15672
▁چنا	-15673
▁یکد	-15674
بابوے	-15675
تہادی	-15676
رمانے	-15677
لامات	-15678
ورٹوں	-15679
ینلوں	-15680
یکٹیر	-15681
یکیوں	-15682
▁ابست	-15683
▁ارار	-15684
▁الفا	-15685
▁جنگج	-15686
▁جھلم	-15687
▁سےپہ	-15688
▁شرائ	-15689
▁شراک	-15690
▁صارف	-15691
▁صریح	-15692
▁صفائ	-15693
▁ضابط	-15694
▁طبیع	-15695
▁عجوب	-15696
▁فائد	-15697
▁فراو	-15698
▁فرشت	-15699
بض	-15700
عص	-15701
پم	-15702
اسز	-15703
ایس	-15704
دوم	-15705
راگ	-15706
ردم	-15707
رلر	-15708
رمح	-15709
سیس	-15710
صیر	-15711
طیر	-15712
فیت	-15713
قری	-15714
متے	-15715
نئے	-15716
ودے	-15717
وسن	-15718
ومز	-15719
پاب	-15720
چیس	-15721
ڈیر	-15722
کیس	-15723
گڑی	-15724
ھئے	-15725
یدھ	-15726
یرئ	-15727
یرس	-15728
یرق	-15729
یرل	-15730
یرم	-15731
یرک	-15732
یزل	-15733
یسا	-15734
یسہ	-15735
ےاد	-15736
▁زا	-15737
ئندہ	-15738
ائنز	-15739
ائیہ	-15740
ابعد	-15741
احیا	-15742
ازوں	-15743
اصیت	-15744
اکمی	-15745
جوان	-15746
حرین	-15747
روری	-15748
ریکا	-15749
سایہ	-15750
ضوعی	-15751
قعوں	-15752
لامس	-15753
لوین	-15754
لیٹر	-15755
وداع	-15756
ولیا	-15757
چسپی	-15758
گانے	-15759
ھرات	-15760
ھیال	-15761
ہوار	-15762
یاںم	-15763
یرال	-15764
یراہ	-15765
یرمل	-15766
یریک	-15767
یریں	-15768
یسائ	-15769
ینجم	-15770
▁اعج	-15771
▁بھو	-15772
▁حیر	-15773
▁دلچ	-15774
▁متض	-15775
▁پائ	-15776
▁ڈیگ	-15777
ائیوم	-15778
تےہیں	-15779
جھائی	-15780
نسٹرک	-15781
ونیور	-15782
گالین	-15783
یسکگو	-15784
▁الشع	-15785
▁جوکھ	-15786
▁حقائ	-15787
▁ریسگ	-15788
▁سمار	-15789
▁سٹوڈ	-15790
▁فلائ	-15791
▁فلسف	-15792
▁فنتا	-15793
▁فوائ	-15794
▁فوجد	-15795
▁فیڈر	-15796
▁قازق	-15797
▁قدام	-15798
▁قلند	-15799
حز	-15800
دڑ	-15801
طن	-15802
ئیف	-15803
تمی	-15804
تیب	-15805
تیر	-15806
خصو	-15807
رتے	-15808
روت	-15809
ریچ	-15810
سلط	-15811
سیٹ	-15812
صیا	-15813
قتی	-15814
لتے	-15815
لیب	-15816
لیح	-15817
لیگ	-15818
متی	-15819
مدع	-15820
مون	-15821
نتی	-15822
نگج	-15823
ونش	-15824
ٹتی	-15825
ٹلی	-15826
ٹکا	-15827
ٹیو	-15828
پرز	-15829
چاس	-15830
گڑا	-15831
ھتے	-15832
ھٹی	-15833
ہتی	-15834
یتے	-15835
یںم	-15836
▁جش	-15837
▁رھ	-15838
▁ٹن	-15839
ائون	-15840
احیہ	-15841
ارام	-15842
ارکے	-15843
التے	-15844
اماد	-15845
امتی	-15846
حدگی	-15847
درال	-15848
رحان	-15849
رویو	-15850
لمبو	-15851
لمین	-15852
لیری	-15853
لینا	-15854
ماشے	-15855
مدار	-15856
وفکر	-15857
ونٹے	-15858
پرند	-15859
ڈکیل	-15860
کنوں	-15861
گئیں	-15862
گائی	-15863
ھیتی	-15864
ھیلی	-15865
یسیں	-15866
یملی	-15867
یمور	-15868
▁اپش	-15869
▁اپو	-15870
▁اپک	-15871
▁اپی	-15872
▁بدق	-15873
▁حلی	-15874
▁دلد	-15875
▁قاص	-15876
▁قلی	-15877
▁لیس	-15878
▁موس	-15879
▁نوم	-15880
▁پلی	-15881
▁ہمپ	-15882
▁ہمک	-15883
▁ہےق	-15884
ربئین	-15885
ولیوں	-15886
▁اورف	-15887
▁بہان	-15888
▁شکرم	-15889
▁لائس	-15890
▁لاتع	-15891
▁لاسک	-15892
▁لاشع	-15893
▁لسان	-15894
▁لطاف	-15895
▁لگاک	-15896
▁مانچ	-15897
▁ماون	-15898
▁ماڈر	-15899
تل	-15900
مخ	-15901
مڈ	-15902
ئیح	-15903
ئیز	-15904
ئیڈ	-15905
اکل	-15906
اہگ	-15907
باہ	-15908
تلا	-15909
تلی	-15910
جئی	-15911
جلا	-15912
خلی	-15913
زاہ	-15914
سلی	-15915
سپت	-15916
شون	-15917
صلا	-15918
ظاہ	-15919
علا	-15920
قلا	-15921
لاع	-15922
لاہ	-15923
لیش	-15924
ماٹ	-15925
مسی	-15926
ملا	-15927
نیئ	-15928
ودب	-15929
ٹوا	-15930
کاہ	-15931
گلی	-15932
گول	-15933
ھجن	-15934
یلا	-15935
یںی	-15936
▁فج	-15937
ابور	-15938
اتحت	-15939
اشرے	-15940
الگر	-15941
انسی	-15942
اہات	-15943
تاتی	-15944
[...]
